{
  "version": "1.0",
  "truncation": null,
  "padding": null,
  "added_tokens": [
    {
      "id": 0,
      "content": "<s>",
      "single_word": false,
      "lstrip": false,
      "rstrip": false,
      "normalized": false,
      "special": true
    },
    {
      "id": 1,
      "content": "<pad>",
      "single_word": false,
      "lstrip": false,
      "rstrip": false,
      "normalized": false,
      "special": true
    },
    {
      "id": 2,
      "content": "</s>",
      "single_word": false,
      "lstrip": false,
      "rstrip": false,
      "normalized": false,
      "special": true
    },
    {
      "id": 3,
      "content": "<unk>",
      "single_word": false,
      "lstrip": false,
      "rstrip": false,
      "normalized": false,
      "special": true
    },
    {
      "id": 4,
      "content": "<mask>",
      "single_word": false,
      "lstrip": false,
      "rstrip": false,
      "normalized": false,
      "special": true
    }
  ],
  "normalizer": {
    "type": "NFKC"
  },
  "pre_tokenizer": {
    "type": "ByteLevel",
    "add_prefix_space": true,
    "trim_offsets": true,
    "use_regex": true
  },
  "post_processor": null,
  "decoder": {
    "type": "ByteLevel",
    "add_prefix_space": true,
    "trim_offsets": true,
    "use_regex": true
  },
  "model": {
    "type": "BPE",
    "dropout": null,
    "unk_token": null,
    "continuing_subword_prefix": null,
    "end_of_word_suffix": null,
    "fuse_unk": false,
    "byte_fallback": false,
    "ignore_merges": false,
    "vocab": {
      "<s>": 0,
      "<pad>": 1,
      "</s>": 2,
      "<unk>": 3,
      "<mask>": 4,
      "!": 5,
      "\"": 6,
      "#": 7,
      "$": 8,
      "%": 9,
      "&": 10,
      "'": 11,
      "(": 12,
      ")": 13,
      "*": 14,
      "+": 15,
      ",": 16,
      "-": 17,
      ".": 18,
      "/": 19,
      "0": 20,
      "1": 21,
      "2": 22,
      "3": 23,
      "4": 24,
      "5": 25,
      "6": 26,
      "7": 27,
      "8": 28,
      ":": 29,
      ";": 30,
      "<": 31,
      "=": 32,
      ">": 33,
      "?": 34,
      "@": 35,
      "A": 36,
      "B": 37,
      "C": 38,
      "D": 39,
      "E": 40,
      "F": 41,
      "G": 42,
      "H": 43,
      "I": 44,
      "J": 45,
      "K": 46,
      "L": 47,
      "M": 48,
      "N": 49,
      "O": 50,
      "P": 51,
      "Q": 52,
      "R": 53,
      "S": 54,
      "T": 55,
      "U": 56,
      "V": 57,
      "W": 58,
      "X": 59,
      "Y": 60,
      "Z": 61,
      "[": 62,
      "\\": 63,
      "]": 64,
      "^": 65,
      "_": 66,
      "`": 67,
      "a": 68,
      "b": 69,
      "c": 70,
      "d": 71,
      "e": 72,
      "f": 73,
      "g": 74,
      "h": 75,
      "i": 76,
      "j": 77,
      "k": 78,
      "l": 79,
      "m": 80,
      "n": 81,
      "o": 82,
      "p": 83,
      "q": 84,
      "r": 85,
      "s": 86,
      "t": 87,
      "u": 88,
      "v": 89,
      "w": 90,
      "x": 91,
      "y": 92,
      "z": 93,
      "|": 94,
      "}": 95,
      "~": 96,
      "¡": 97,
      "¢": 98,
      "£": 99,
      "¤": 100,
      "¥": 101,
      "¦": 102,
      "§": 103,
      "¨": 104,
      "©": 105,
      "ª": 106,
      "«": 107,
      "¬": 108,
      "®": 109,
      "¯": 110,
      "°": 111,
      "±": 112,
      "²": 113,
      "³": 114,
      "´": 115,
      "µ": 116,
      "¶": 117,
      "·": 118,
      "¸": 119,
      "¹": 120,
      "º": 121,
      "»": 122,
      "¼": 123,
      "½": 124,
      "¾": 125,
      "¿": 126,
      "Â": 127,
      "Ã": 128,
      "Ä": 129,
      "Å": 130,
      "Æ": 131,
      "Ç": 132,
      "È": 133,
      "É": 134,
      "Ê": 135,
      "Ë": 136,
      "Ì": 137,
      "Í": 138,
      "Î": 139,
      "Ï": 140,
      "Ð": 141,
      "Ñ": 142,
      "Ò": 143,
      "Ó": 144,
      "Ô": 145,
      "Õ": 146,
      "Ö": 147,
      "×": 148,
      "Ø": 149,
      "Ù": 150,
      "Ú": 151,
      "Û": 152,
      "Ü": 153,
      "ß": 154,
      "à": 155,
      "á": 156,
      "â": 157,
      "ã": 158,
      "ä": 159,
      "å": 160,
      "æ": 161,
      "ç": 162,
      "è": 163,
      "é": 164,
      "ê": 165,
      "ë": 166,
      "ì": 167,
      "í": 168,
      "î": 169,
      "ï": 170,
      "ð": 171,
      "ó": 172,
      "Ġ": 173,
      "Ģ": 174,
      "ģ": 175,
      "Ĥ": 176,
      "ĥ": 177,
      "Ħ": 178,
      "ħ": 179,
      "Ĩ": 180,
      "ĩ": 181,
      "Ī": 182,
      "ī": 183,
      "Ĭ": 184,
      "ĭ": 185,
      "Į": 186,
      "į": 187,
      "İ": 188,
      "ı": 189,
      "Ĳ": 190,
      "ĳ": 191,
      "Ĵ": 192,
      "ĵ": 193,
      "Ķ": 194,
      "ķ": 195,
      "ĸ": 196,
      "Ĺ": 197,
      "ĺ": 198,
      "Ļ": 199,
      "ļ": 200,
      "Ľ": 201,
      "ľ": 202,
      "Ŀ": 203,
      "ŀ": 204,
      "Ł": 205,
      "ł": 206,
      "Ń": 207,
      "Ġt": 208,
      "Ġa": 209,
      "in": 210,
      "he": 211,
      "re": 212,
      "on": 213,
      "Ġthe": 214,
      "er": 215,
      "Ġs": 216,
      "Ġw": 217,
      "Ġo": 218,
      "at": 219,
      "Ġc": 220,
      "nd": 221,
      "it": 222,
      "ou": 223,
      "or": 224,
      "es": 225,
      "is": 226,
      "Ġf": 227,
      "en": 228,
      "Ġp": 229,
      "Ġb": 230,
      "ing": 231,
      "an": 232,
      "ed": 233,
      "Ġto": 234,
      "al": 235,
      "Ġm": 236,
      "00": 237,
      "Ġand": 238,
      "ar": 239,
      "Ġin": 240,
      "Ġof": 241,
      "Ġd": 242,
      "ic": 243,
      "le": 244,
      "om": 245,
      "ion": 246,
      "Ġh": 247,
      "as": 248,
      "Ġth": 249,
      "ll": 250,
      "Ġy": 251,
      "ent": 252,
      "Ġl": 253,
      "ve": 254,
      "Ġe": 255,
      "ro": 256,
      "ĠT": 257,
      "Ġre": 258,
      "ĠI": 259,
      "st": 260,
      "Ġn": 261,
      "Ġyou": 262,
      "ct": 263,
      "Ġg": 264,
      "ly": 265,
      "et": 266,
      "Ġis": 267,
      "Ġfor": 268,
      "ĠS": 269,
      "Ġbe": 270,
      "ut": 271,
      "ĠA": 272,
      "ot": 273,
      "Ġon": 274,
      "id": 275,
      "ur": 276,
      "ow": 277,
      "ĠC": 278,
      "ay": 279,
      "Ġ00": 280,
      "us": 281,
      "ce": 282,
      "im": 283,
      "ig": 284,
      "ra": 285,
      "ch": 286,
      "ith": 287,
      "ver": 288,
      "ation": 289,
      "il": 290,
      "Ġthat": 291,
      "Ġst": 292,
      "ol": 293,
      "Ġwith": 294,
      "ad": 295,
      "am": 296,
      "ĠM": 297,
      "ir": 298,
      "Ġit": 299,
      "ĠThe": 300,
      "se": 301,
      "Ġwe": 302,
      "ĠW": 303,
      "Ġan": 304,
      "Ġpro": 305,
      "ĠP": 306,
      "ill": 307,
      "ĠB": 308,
      "Ġas": 309,
      "ers": 310,
      "Ġare": 311,
      "Ġhe": 312,
      "Ġwh": 313,
      "if": 314,
      "un": 315,
      "ge": 316,
      "ke": 317,
      "Ġha": 318,
      "Ġcon": 319,
      "ter": 320,
      "Ġor": 321,
      "'s": 322,
      "ul": 323,
      "ess": 324,
      "Ġcom": 325,
      "oo": 326,
      "ĠH": 327,
      "ate": 328,
      "pp": 329,
      "ĠD": 330,
      "her": 331,
      "ment": 332,
      "ĠF": 333,
      "Ġyour": 334,
      "est": 335,
      "ld": 336,
      "ab": 337,
      "Ġde": 338,
      "Ġat": 339,
      "Ġse": 340,
      "Ġmo": 341,
      "Ġex": 342,
      "ri": 343,
      "ck": 344,
      "Ġ0": 345,
      "rom": 346,
      "Ġne": 347,
      "pe": 348,
      "igh": 349,
      "qu": 350,
      "ĠR": 351,
      "ure": 352,
      "ort": 353,
      "ist": 354,
      "Ġv": 355,
      "ity": 356,
      "ant": 357,
      "ĠL": 358,
      "Ġhave": 359,
      "ive": 360,
      "Ġcan": 361,
      "art": 362,
      "ĠG": 363,
      "ust": 364,
      "um": 365,
      "ĠE": 366,
      "Ġwas": 367,
      "Ġus": 368,
      "Ġ(": 369,
      "Ġfrom": 370,
      "op": 371,
      "Ġthis": 372,
      "ain": 373,
      "em": 374,
      "ĠN": 375,
      "Ġal": 376,
      "Ġsh": 377,
      "Ġr": 378,
      "th": 379,
      "ies": 380,
      "ĠO": 381,
      "Ġch": 382,
      "Ġwill": 383,
      "os": 384,
      "Ġby": 385,
      "Ġnot": 386,
      "Ġsu": 387,
      "el": 388,
      "nt": 389,
      "and": 390,
      "Ġu": 391,
      "res": 392,
      "ight": 393,
      "ome": 394,
      "all": 395,
      "Ġ0000": 396,
      "Ġle": 397,
      "ard": 398,
      "ud": 399,
      "out": 400,
      "iv": 401,
      "Ġdo": 402,
      "Ġab": 403,
      "ial": 404,
      "Ġwor": 405,
      "our": 406,
      "ould": 407,
      "ie": 408,
      "Ġall": 409,
      "red": 410,
      "ide": 411,
      "te": 412,
      "Ġpl": 413,
      "Ġ\"": 414,
      "per": 415,
      "rou": 416,
      "ĠTh": 417,
      "gh": 418,
      "ine": 419,
      "Ġcomp": 420,
      "Ġso": 421,
      "Ġma": 422,
      "age": 423,
      "fe": 424,
      "ice": 425,
      "Ġj": 426,
      "ast": 427,
      "Ġk": 428,
      "pt": 429,
      "Ġad": 430,
      "ally": 431,
      "ction": 432,
      "ear": 433,
      "Ġ-": 434,
      "Ġhas": 435,
      "lo": 436,
      "Ġwhe": 437,
      "ĠJ": 438,
      "king": 439,
      "able": 440,
      "ĠIn": 441,
      "ag": 442,
      "Ġen": 443,
      "ther": 444,
      "ac": 445,
      "Ġme": 446,
      "so": 447,
      "ich": 448,
      "Ġbut": 449,
      "ind": 450,
      "ip": 451,
      "od": 452,
      "Ġout": 453,
      "are": 454,
      "Ġour": 455,
      "ĠU": 456,
      "Ġup": 457,
      "ack": 458,
      "very": 459,
      "ite": 460,
      "Ġlo": 461,
      "ated": 462,
      "cc": 463,
      "one": 464,
      "ry": 465,
      "Ġmore": 466,
      "Ġtheir": 467,
      "ime": 468,
      "du": 469,
      "ĠY": 470,
      "Ġte": 471,
      "Ġim": 472,
      "ood": 473,
      "iz": 474,
      "for": 475,
      "'t": 476,
      "ong": 477,
      "Ġthey": 478,
      "ore": 479,
      "Ġmy": 480,
      "Ġcont": 481,
      "ous": 482,
      "Ġone": 483,
      "ks": 484,
      "ans": 485,
      "ance": 486,
      "ib": 487,
      "ost": 488,
      "Ġcl": 489,
      "ike": 490,
      "Ġinc": 491,
      "ign": 492,
      "ions": 493,
      "Ġapp": 494,
      "Ġman": 495,
      "Ġun": 496,
      "Ġfe": 497,
      "Ġres": 498,
      "ru": 499,
      "ĠIt": 500,
      "act": 501,
      "Ġabout": 502,
      "Ġwhich": 503,
      "ĠWe": 504,
      "Ġqu": 505,
      "ire": 506,
      "ult": 507,
      "reat": 508,
      "ail": 509,
      "ase": 510,
      "Ġper": 511,
      "ations": 512,
      "og": 513,
      "erv": 514,
      "ace": 515,
      "ia": 516,
      "Ġalso": 517,
      "Ġany": 518,
      "ĠK": 519,
      "ree": 520,
      "Ġtime": 521,
      "Ġoff": 522,
      "Ġother": 523,
      "Ġwho": 524,
      "ĠThis": 525,
      "form": 526,
      "Ġgo": 527,
      "ach": 528,
      "to": 529,
      "ne": 530,
      "ap": 531,
      "ass": 532,
      "ame": 533,
      "Ġ000": 534,
      "vel": 535,
      "ber": 536,
      "ical": 537,
      "Ġsp": 538,
      "ile": 539,
      "ary": 540,
      "..": 541,
      "Ġdis": 542,
      "000": 543,
      "ep": 544,
      "ven": 545,
      "Ġget": 546,
      "ĠV": 547,
      "Ġyear": 548,
      "ays": 549,
      "Ġlike": 550,
      "Ġpart": 551,
      "Ġsome": 552,
      "ence": 553,
      "ount": 554,
      "ue": 555,
      "ook": 556,
      "ĠSt": 557,
      "ff": 558,
      "Ġsa": 559,
      "Ġnew": 560,
      "Ġta": 561,
      "ents": 562,
      "Ġthem": 563,
      "own": 564,
      "ub": 565,
      "Ġneed": 566,
      "ition": 567,
      "pl": 568,
      "Ġtra": 569,
      "ors": 570,
      "ings": 571,
      "ress": 572,
      "ĠCh": 573,
      "Ġspe": 574,
      "ick": 575,
      "Ġar": 576,
      "Ġhis": 577,
      "ond": 578,
      "Ġover": 579,
      "Ġif": 580,
      "0000": 581,
      "ark": 582,
      "Ġrec": 583,
      "cial": 584,
      "Ġwhen": 585,
      "Ġthere": 586,
      "Ġbeen": 587,
      "Ġimp": 588,
      "Ġro": 589,
      "ild": 590,
      "Ġco": 591,
      "Ġsc": 592,
      "Ġag": 593,
      "Ġpre": 594,
      "Ġwork": 595,
      "Ġpe": 596,
      "ens": 597,
      "av": 598,
      "Ġkn": 599,
      "Ġwhat": 600,
      "Ġthan": 601,
      "Ġwould": 602,
      "Ġdes": 603,
      "Ġacc": 604,
      "ough": 605,
      "ish": 606,
      "wn": 607,
      "ren": 608,
      "int": 609,
      "Ġhow": 610,
      "Ġam": 611,
      "nder": 612,
      "ater": 613,
      "Ġwere": 614,
      "ord": 615,
      "Ġjust": 616,
      "lp": 617,
      "rough": 618,
      "Ġprov": 619,
      "Ġhad": 620,
      "ound": 621,
      "Ġcomm": 622,
      "Ġinto": 623,
      "ĠYou": 624,
      "vers": 625,
      "Ġbec": 626,
      "ĠHe": 627,
      "lud": 628,
      "Ġhelp": 629,
      "lic": 630,
      "use": 631,
      "Ġbu": 632,
      "ak": 633,
      "Ġserv": 634,
      "Ġmake": 635,
      "irst": 636,
      "Ġmay": 637,
      "ang": 638,
      "ning": 639,
      "Ġits": 640,
      "ory": 641,
      "ople": 642,
      "Ġno": 643,
      "Ġadd": 644,
      "Ġpr": 645,
      "old": 646,
      "Ġuse": 647,
      "fter": 648,
      "ces": 649,
      "ĠIf": 650,
      "ram": 651,
      "ments": 652,
      "rent": 653,
      "ual": 654,
      "Ġem": 655,
      "Ġprodu": 656,
      "Ġmost": 657,
      "ĠWh": 658,
      "Ġind": 659,
      "ices": 660,
      "Ġher": 661,
      "itt": 662,
      "Ġtr": 663,
      ").": 664,
      "ft": 665,
      "Ġwell": 666,
      "Ġtw": 667,
      "Ġinclud": 668,
      "Ġpeople": 669,
      "ose": 670,
      "ect": 671,
      "Ġknow": 672,
      "les": 673,
      "ious": 674,
      "Ġonly": 675,
      "Ġthrough": 676,
      "oc": 677,
      "tern": 678,
      "ons": 679,
      "ates": 680,
      "ily": 681,
      "we": 682,
      "hed": 683,
      "ull": 684,
      "end": 685,
      "ink": 686,
      "round": 687,
      "Ġevery": 688,
      "Ġph": 689,
      "Ġbet": 690,
      "Ġfirst": 691,
      "fect": 692,
      "ian": 693,
      "Ġcons": 694,
      "ating": 695,
      "ise": 696,
      "Ġthese": 697,
      "Ġunder": 698,
      "ause": 699,
      "ities": 700,
      "Ġwant": 701,
      "Ġsupp": 702,
      "ific": 703,
      "ject": 704,
      "ĠAs": 705,
      "bs": 706,
      "Ġexper": 707,
      "Ġdif": 708,
      "Ġsee": 709,
      "Ġpo": 710,
      "ade": 711,
      "Ġvery": 712,
      "mer": 713,
      "Ġact": 714,
      "Ġback": 715,
      "Ġcol": 716,
      "Ġrep": 717,
      "li": 718,
      "lect": 719,
      "Ġreg": 720,
      "iness": 721,
      "amp": 722,
      "hen": 723,
      "ert": 724,
      "ĠRe": 725,
      "cess": 726,
      "Ġsy": 727,
      "ict": 728,
      "ange": 729,
      "oth": 730,
      "ful": 731,
      "xt": 732,
      "Ġra": 733,
      "iew": 734,
      "ph": 735,
      "Ġmany": 736,
      "ced": 737,
      "Ġbus": 738,
      "any": 739,
      "uch": 740,
      "Ġstud": 741,
      "Ġgood": 742,
      "fore": 743,
      "Ġke": 744,
      "ures": 745,
      "ible": 746,
      "Ġinv": 747,
      "Ġfl": 748,
      "Ġtwo": 749,
      "day": 750,
      "row": 751,
      "urn": 752,
      "Ġgreat": 753,
      "iss": 754,
      "ility": 755,
      "Ġway": 756,
      "sel": 757,
      "Ġdec": 758,
      "ife": 759,
      "Ġinform": 760,
      "Ġsm": 761,
      "ting": 762,
      "als": 763,
      "Ġyears": 764,
      "Ġcould": 765,
      "Ġshould": 766,
      "ract": 767,
      "erson": 768,
      "Ġpos": 769,
      "Ġev": 770,
      "Ġafter": 771,
      "Ġshe": 772,
      "ower": 773,
      "Ġwhere": 774,
      "ving": 775,
      "ased": 776,
      "Ġent": 777,
      "ys": 778,
      "eth": 779,
      "Ġrem": 780,
      "Ġeven": 781,
      "olog": 782,
      "Ġthen": 783,
      "Ġbest": 784,
      "Ġac": 785,
      "ĠFor": 786,
      "Ġown": 787,
      "get": 788,
      "ool": 789,
      "Ġinst": 790,
      "pect": 791,
      "ience": 792,
      "ular": 793,
      "Ġfind": 794,
      "ational": 795,
      "ved": 796,
      "stem": 797,
      "oll": 798,
      "ble": 799,
      "velop": 800,
      "ont": 801,
      "aw": 802,
      "erm": 803,
      "Ġrequ": 804,
      "Ġset": 805,
      "Ġhigh": 806,
      "Ġins": 807,
      "Ġcar": 808,
      "ĠNe": 809,
      "Ġstart": 810,
      "Ġhome": 811,
      "Ġloc": 812,
      "Ġsuch": 813,
      "ĠAn": 814,
      "Ġnow": 815,
      "ward": 816,
      "ĠUn": 817,
      "Ġfin": 818,
      "uring": 819,
      "Ġdesign": 820,
      "ts": 821,
      "rit": 822,
      "Ġrel": 823,
      "Ġsec": 824,
      "Ġmuch": 825,
      "Ġright": 826,
      "der": 827,
      "ative": 828,
      "Ġdown": 829,
      "ath": 830,
      "ĠSe": 831,
      "line": 832,
      "Ġbusiness": 833,
      "ĠCom": 834,
      "ics": 835,
      "hes": 836,
      "Ġgu": 837,
      "air": 838,
      "Ġav": 839,
      "Ġdiffe": 840,
      "Ġplay": 841,
      "Ġatt": 842,
      "Ġinformation": 843,
      "its": 844,
      "ty": 845,
      "ĠAnd": 846,
      "Ġday": 847,
      "Ġdon": 848,
      "ener": 849,
      "Ġsaid": 850,
      "hip": 851,
      "Ġtake": 852,
      "Ġinte": 853,
      "Ġread": 854,
      "alth": 855,
      "ient": 856,
      "oy": 857,
      "gan": 858,
      "Ġbl": 859,
      "ĠPro": 860,
      "Ġexp": 861,
      "arch": 862,
      "'re": 863,
      "),": 864,
      "ident": 865,
      "Ġlong": 866,
      "com": 867,
      "Ġmin": 868,
      "Ġused": 869,
      "Ġbecause": 870,
      "Ġtoo": 871,
      "ited": 872,
      "Ġche": 873,
      "Ġperson": 874,
      "up": 875,
      "arket": 876,
      "chn": 877,
      "Ġproduct": 878,
      "Ġfam": 879,
      "ob": 880,
      "Ġmon": 881,
      "Ġdevelop": 882,
      "Ġdisc": 883,
      "ustom": 884,
      "Ġsim": 885,
      "ality": 886,
      "und": 887,
      "io": 888,
      "Ġcre": 889,
      "Ġprovid": 890,
      "Ġsystem": 891,
      "Ġprog": 892,
      "Ġbr": 893,
      "Ġass": 894,
      "ĠDe": 895,
      "Ġvis": 896,
      "Ġbel": 897,
      "Ġhere": 898,
      "Ġsur": 899,
      "Ġtrans": 900,
      "Ġmade": 901,
      "ied": 902,
      "other": 903,
      "Ġdoes": 904,
      "cy": 905,
      "ove": 906,
      "Ġbefore": 907,
      "Ġpres": 908,
      "Ġ&": 909,
      "chool": 910,
      "rib": 911,
      "ĠThere": 912,
      "Ġshow": 913,
      "Ġdid": 914,
      "ĠAl": 915,
      "ash": 916,
      "Ġbeing": 917,
      "Ġthose": 918,
      "Ġcall": 919,
      "ually": 920,
      "Ġworld": 921,
      "ner": 922,
      "ffect": 923,
      "Ġcomple": 924,
      "Ġend": 925,
      "Ġeas": 926,
      "Ġform": 927,
      "Ġ$": 928,
      "Ġdet": 929,
      "Ġeach": 930,
      "Ġwee": 931,
      "ĠBe": 932,
      "Ġhand": 933,
      "Ġcur": 934,
      "ix": 935,
      "Ġnum": 936,
      "rest": 937,
      "Ġmed": 938,
      "Ġart": 939,
      "Ġsub": 940,
      "ĠSo": 941,
      "Ġlife": 942,
      "Ġbo": 943,
      "ork": 944,
      "ric": 945,
      "ata": 946,
      "ake": 947,
      "Ġinter": 948,
      "Ġmem": 949,
      "Ġagain": 950,
      "ages": 951,
      "ues": 952,
      "Ġsupport": 953,
      "Ġcustom": 954,
      "Ġlook": 955,
      "arm": 956,
      "âĢ": 957,
      "arn": 958,
      "Ġdifferent": 959,
      "ize": 960,
      "ci": 961,
      "Ġop": 962,
      "ĠBut": 963,
      "ĠHow": 964,
      "ank": 965,
      "ional": 966,
      "Ġsk": 967,
      "Ġadv": 968,
      "de": 969,
      "gg": 970,
      "way": 971,
      "ros": 972,
      "ines": 973,
      "ouse": 974,
      "Ġwhile": 975,
      "led": 976,
      "cept": 977,
      "ĠSh": 978,
      "ince": 979,
      "Ġaround": 980,
      "kes": 981,
      "az": 982,
      "Ġprocess": 983,
      "Ġmarket": 984,
      "ple": 985,
      "Ġpost": 986,
      "ives": 987,
      "'ve": 988,
      "Ġstr": 989,
      "olut": 990,
      "Ġavail": 991,
      "ng": 992,
      "Ġcle": 993,
      "Ġfree": 994,
      "Ġgra": 995,
      "ason": 996,
      "ather": 997,
      "Ġcare": 998,
      "Ġaut": 999,
      "land": 1000,
      "ctions": 1001,
      "ale": 1002,
      "ollow": 1003,
      "Ġed": 1004,
      "Ġprof": 1005,
      "lease": 1006,
      "Ġlast": 1007,
      "Ġloo": 1008,
      "ves": 1009,
      "Ġreally": 1010,
      "self": 1011,
      "Ġser": 1012,
      "Ġret": 1013,
      "Ġprogram": 1014,
      "ave": 1015,
      "atch": 1016,
      "Ġcommun": 1017,
      "Ġsign": 1018,
      "Ġlead": 1019,
      "Ġchild": 1020,
      "Ġlove": 1021,
      "Ġtechn": 1022,
      "read": 1023,
      "...": 1024,
      "Ġcour": 1025,
      "ell": 1026,
      "ins": 1027,
      "ene": 1028,
      "Ġplace": 1029,
      "Ġpur": 1030,
      "Ġ.": 1031,
      "Ġimport": 1032,
      "Ġlist": 1033,
      "ways": 1034,
      "ness": 1035,
      "Ġteam": 1036,
      "irect": 1037,
      "Ġfun": 1038,
      "ĠThey": 1039,
      "Ġhim": 1040,
      "pr": 1041,
      "Ġext": 1042,
      "ĠOn": 1043,
      "Ġval": 1044,
      "ween": 1045,
      "Ġfull": 1046,
      "Ġtop": 1047,
      "imes": 1048,
      "Ġcount": 1049,
      "Ġpub": 1050,
      "roup": 1051,
      "'ll": 1052,
      "ĠAr": 1053,
      "Ġsom": 1054,
      "Ġusing": 1055,
      "Ġsame": 1056,
      "Ġthink": 1057,
      "ivers": 1058,
      "Ġboth": 1059,
      "oun": 1060,
      "Ġavailable": 1061,
      "ĠCl": 1062,
      "ten": 1063,
      "Ġlar": 1064,
      "Ġcompany": 1065,
      "Ġvar": 1066,
      "Ġservice": 1067,
      "riend": 1068,
      "Ġstill": 1069,
      "Ġfeel": 1070,
      "ature": 1071,
      "ĠNew": 1072,
      "ized": 1073,
      "ets": 1074,
      "ining": 1075,
      "Ġgener": 1076,
      "Ġplan": 1077,
      "Ġbetween": 1078,
      "'m": 1079,
      "Ġproject": 1080,
      "Ġchar": 1081,
      "ĠAd": 1082,
      "Ġty": 1083,
      "Ġopt": 1084,
      "ired": 1085,
      "ology": 1086,
      "Ġpol": 1087,
      "Ġlot": 1088,
      "Ġbuild": 1089,
      "view": 1090,
      "Ġappro": 1091,
      "Ġhealth": 1092,
      "Ġide": 1093,
      "Ġgoing": 1094,
      "Ġcor": 1095,
      "Ġthough": 1096,
      "ever": 1097,
      "Ġmain": 1098,
      ".\"": 1099,
      "ov": 1100,
      "ety": 1101,
      "Ġfew": 1102,
      "iqu": 1103,
      "Ġfound": 1104,
      "ĠWhat": 1105,
      "Ġfollow": 1106,
      ",\"": 1107,
      "ĠLe": 1108,
      "uc": 1109,
      "Ġrun": 1110,
      "Ġexperience": 1111,
      "ants": 1112,
      "Ġkeep": 1113,
      "ittle": 1114,
      "ars": 1115,
      "less": 1116,
      "Ġsmall": 1117,
      "Ġposs": 1118,
      "Ġallow": 1119,
      "Ġsl": 1120,
      "ĠWhen": 1121,
      "Ġoffer": 1122,
      "Ġref": 1123,
      "Ġdata": 1124,
      "Ġresult": 1125,
      "Ġpat": 1126,
      "Ġpartic": 1127,
      "ĠAll": 1128,
      "Ġwater": 1129,
      "Ġmonth": 1130,
      "Ġpoint": 1131,
      "ĠTo": 1132,
      "be": 1133,
      "iving": 1134,
      "Ġhapp": 1135,
      "Ġprovide": 1136,
      "Ġorgan": 1137,
      "ross": 1138,
      "ware": 1139,
      "Ġreal": 1140,
      "Ġservices": 1141,
      "stand": 1142,
      "plo": 1143,
      "Ġcost": 1144,
      "Ġob": 1145,
      "Ġopen": 1146,
      "ms": 1147,
      "Ġalways": 1148,
      "Ġcent": 1149,
      "ah": 1150,
      "Ġpay": 1151,
      "Ġpri": 1152,
      "Ġmust": 1153,
      "ĠâĢ": 1154,
      "Ġincluding": 1155,
      "Ġsure": 1156,
      "bers": 1157,
      "Ġwithout": 1158,
      "Ġinterest": 1159,
      "erg": 1160,
      "ural": 1161,
      "Ġfamily": 1162,
      "Ġduring": 1163,
      "ital": 1164,
      "Ġfil": 1165,
      "aut": 1166,
      "ug": 1167,
      "ically": 1168,
      "Ġrest": 1169,
      "Ġthings": 1170,
      "Ġimportant": 1171,
      "Ġbetter": 1172,
      "ton": 1173,
      "orth": 1174,
      "thing": 1175,
      "Ġeffect": 1176,
      "ĠQ": 1177,
      "Ġschool": 1178,
      "Ġstand": 1179,
      "Ġresp": 1180,
      "ĠEx": 1181,
      "co": 1182,
      "Ġperform": 1183,
      "Ġnumber": 1184,
      "Ġproper": 1185,
      "Ġdri": 1186,
      "Ġiss": 1187,
      "Ġint": 1188,
      "Ġcome": 1189,
      "Ġlittle": 1190,
      "Ġthree": 1191,
      "ield": 1192,
      "ined": 1193,
      "ĠTe": 1194,
      "ĠAt": 1195,
      "ĠWith": 1196,
      "Ġpass": 1197,
      "Ġclass": 1198,
      "Ġrece": 1199,
      "Ġonline": 1200,
      "Ġfact": 1201,
      "ody": 1202,
      "Ġmod": 1203,
      "Ġve": 1204,
      "ĠPl": 1205,
      "arly": 1206,
      "cer": 1207,
      "ute": 1208,
      "ists": 1209,
      "Ġable": 1210,
      "Ġspec": 1211,
      "Ġconf": 1212,
      "Ġquest": 1213,
      "els": 1214,
      "Ġwebs": 1215,
      "Ġdef": 1216,
      "ĠOur": 1217,
      "con": 1218,
      "man": 1219,
      "ished": 1220,
      "alk": 1221,
      "Ġlevel": 1222,
      "Ġfriend": 1223,
      "Ġcontin": 1224,
      "ething": 1225,
      "ling": 1226,
      "meric": 1227,
      "Ġsay": 1228,
      "Ġdist": 1229,
      "ier": 1230,
      "ploy": 1231,
      "ention": 1232,
      "ared": 1233,
      "Ġspecial": 1234,
      "ccess": 1235,
      "Ġarea": 1236,
      "Ġtry": 1237,
      "Ġaccess": 1238,
      "Ġincre": 1239,
      "Ġproble": 1240,
      "Ġlight": 1241,
      "Ġbra": 1242,
      "Ġgive": 1243,
      "Ġstate": 1244,
      "Ġnext": 1245,
      "cent": 1246,
      "Ġcert": 1247,
      "Ġtri": 1248,
      "Ġdi": 1249,
      "Ġgroup": 1250,
      "ients": 1251,
      "ĠInd": 1252,
      "uss": 1253,
      "ruct": 1254,
      "ately": 1255,
      "ider": 1256,
      "orts": 1257,
      "Ġmight": 1258,
      "Ġquality": 1259,
      "Ġwithin": 1260,
      "Ġinf": 1261,
      "oney": 1262,
      "ock": 1263,
      "reen": 1264,
      "me": 1265,
      "ĠShe": 1266,
      "Ġopp": 1267,
      "Ġorder": 1268,
      "ien": 1269,
      "Ġsince": 1270,
      "au": 1271,
      "ger": 1272,
      "Ġanother": 1273,
      "Ġsomething": 1274,
      "vern": 1275,
      "Ġblo": 1276,
      "ĠIs": 1277,
      "dition": 1278,
      "Ġeng": 1279,
      "Ġcurrent": 1280,
      "Ġrese": 1281,
      "Ġput": 1282,
      "Ġi": 1283,
      "Ġbook": 1284,
      "Ġlet": 1285,
      "rence": 1286,
      "Ġwr": 1287,
      "Ġoper": 1288,
      "Ġphot": 1289,
      "Ġbig": 1290,
      "ĠAmeric": 1291,
      "Ġpower": 1292,
      "att": 1293,
      "ps": 1294,
      "ential": 1295,
      "Ġgrow": 1296,
      "ames": 1297,
      "Ġmus": 1298,
      "Ġdirect": 1299,
      "Ġhard": 1300,
      "Ġcontro": 1301,
      "ior": 1302,
      "load": 1303,
      "Ġapplic": 1304,
      "pend": 1305,
      "ral": 1306,
      "Ġest": 1307,
      "Ġinvest": 1308,
      "Ġsecond": 1309,
      "Ġold": 1310,
      "ortun": 1311,
      "Ġsite": 1312,
      "iversity": 1313,
      "ration": 1314,
      "Ġprofess": 1315,
      "Ġless": 1316,
      "Ġaddition": 1317,
      "ffic": 1318,
      "oot": 1319,
      "Ġcr": 1320,
      "Ġroom": 1321,
      "Ġequ": 1322,
      "Ġtest": 1323,
      "Ġdays": 1324,
      "here": 1325,
      "ours": 1326,
      "Ġbuy": 1327,
      "orn": 1328,
      "ivid": 1329,
      "Ġvisit": 1330,
      "Ġworking": 1331,
      "Ġweek": 1332,
      "Ġhead": 1333,
      "ision": 1334,
      "ĠCon": 1335,
      "rist": 1336,
      "Ġproducts": 1337,
      "Ġsit": 1338,
      "ards": 1339,
      "ense": 1340,
      "ĠSp": 1341,
      "Ġgl": 1342,
      "joy": 1343,
      "Ġbro": 1344,
      "Ġpract": 1345,
      "ĠThat": 1346,
      "Ġnever": 1347,
      "work": 1348,
      "ĠSc": 1349,
      "Ġjo": 1350,
      "Ġmeet": 1351,
      "ium": 1352,
      "ĠPh": 1353,
      "ted": 1354,
      "ified": 1355,
      "tain": 1356,
      "cl": 1357,
      "Ġtoday": 1358,
      "Ġlooking": 1359,
      "Ġprote": 1360,
      "Ġview": 1361,
      "ĠZ": 1362,
      "Ġfac": 1363,
      "Ġwebsite": 1364,
      "ases": 1365,
      "Ġprom": 1366,
      "ateg": 1367,
      "Ġlocal": 1368,
      "Ġindust": 1369,
      "Ġintern": 1370,
      "gin": 1371,
      "Ġel": 1372,
      "oss": 1373,
      "Ġstudents": 1374,
      "Ġpresent": 1375,
      "eng": 1376,
      "ator": 1377,
      "Ġsal": 1378,
      "ote": 1379,
      "ĠCan": 1380,
      "cing": 1381,
      "Ġunderstand": 1382,
      "Ġmaking": 1383,
      "Ġgot": 1384,
      "Ġgame": 1385,
      "omm": 1386,
      "Ġgr": 1387,
      "Ġfood": 1388,
      "iron": 1389,
      "por": 1390,
      "Ġneeds": 1391,
      "Ġlarge": 1392,
      "ĠMy": 1393,
      "agement": 1394,
      "Ġbre": 1395,
      "Ġair": 1396,
      "!!": 1397,
      "ĠRes": 1398,
      "Ġprev": 1399,
      "ems": 1400,
      "aterial": 1401,
      "ump": 1402,
      "Ġcheck": 1403,
      "Ġpublic": 1404,
      "Ġpop": 1405,
      "ability": 1406,
      "Ġmet": 1407,
      "ĠâĢĺ": 1408,
      "Ġunt": 1409,
      "ĠThese": 1410,
      "Ġchange": 1411,
      "Ġcomplete": 1412,
      "ills": 1413,
      "room": 1414,
      "Ġcap": 1415,
      "orm": 1416,
      "ieve": 1417,
      "Ġeasy": 1418,
      "Ġevent": 1419,
      "Ġchildren": 1420,
      "Ġwin": 1421,
      "Ġimpro": 1422,
      "pping": 1423,
      "Ġdev": 1424,
      "Ġchang": 1425,
      "Ġconst": 1426,
      "ission": 1427,
      "Ġsuccess": 1428,
      "lection": 1429,
      "ax": 1430,
      "inal": 1431,
      "ird": 1432,
      "Ġca": 1433,
      "ised": 1434,
      "ĠOr": 1435,
      "Ġmoney": 1436,
      "ample": 1437,
      "Ġtru": 1438,
      "Ġcreat": 1439,
      "Ġcourse": 1440,
      "ĠDo": 1441,
      "Ġ'": 1442,
      "Ġlearn": 1443,
      "ĠJo": 1444,
      "Ġfr": 1445,
      "ify": 1446,
      "illion": 1447,
      "atter": 1448,
      "ery": 1449,
      "ently": 1450,
      "Ġann": 1451,
      "Ġterm": 1452,
      "pos": 1453,
      "ĠFr": 1454,
      "Ġconne": 1455,
      "ER": 1456,
      "ope": 1457,
      "ode": 1458,
      "ron": 1459,
      "ĠCol": 1460,
      "aster": 1461,
      "ats": 1462,
      "Ġcase": 1463,
      "Ġactiv": 1464,
      "ique": 1465,
      "Ġemploy": 1466,
      "Ġalong": 1467,
      "ĠMan": 1468,
      "itions": 1469,
      "ĠNo": 1470,
      "ids": 1471,
      "Ġlaw": 1472,
      ".,": 1473,
      "tend": 1474,
      "Ġpain": 1475,
      "Ġenjoy": 1476,
      "ism": 1477,
      "ĠBl": 1478,
      "Ġuntil": 1479,
      "Ġbas": 1480,
      "ably": 1481,
      "Ġcontact": 1482,
      "Ġpossible": 1483,
      "Ġname": 1484,
      "med": 1485,
      "outh": 1486,
      "Ġmaterial": 1487,
      "Ġvide": 1488,
      "ĠUS": 1489,
      "Ġhouse": 1490,
      "ush": 1491,
      "Ġtoget": 1492,
      "Ġtogether": 1493,
      "Ġleg": 1494,
      "ization": 1495,
      "Ġpar": 1496,
      "bo": 1497,
      "enef": 1498,
      "Ġdem": 1499,
      "Ġreport": 1500,
      "ogra": 1501,
      "port": 1502,
      "Ġaway": 1503,
      "ered": 1504,
      "ains": 1505,
      "ries": 1506,
      "Ġindivid": 1507,
      "Ġoften": 1508,
      "ret": 1509,
      "min": 1510,
      "aring": 1511,
      "Ġcreate": 1512,
      "Ġturn": 1513,
      "utes": 1514,
      "pped": 1515,
      "ember": 1516,
      "Ġsing": 1517,
      "ury": 1518,
      "ott": 1519,
      "Ġpersonal": 1520,
      "Ġbeaut": 1521,
      "Ġwhy": 1522,
      "Ġdetail": 1523,
      "part": 1524,
      "icle": 1525,
      "Ġhist": 1526,
      "ocus": 1527,
      "Ġhaving": 1528,
      "ream": 1529,
      "Ġresearch": 1530,
      "Ġtreat": 1531,
      "olution": 1532,
      "Ġdra": 1533,
      "of": 1534,
      "ories": 1535,
      "Ġhum": 1536,
      "Ġpa": 1537,
      "Ġsoft": 1538,
      "ann": 1539,
      "ering": 1540,
      "ising": 1541,
      "itive": 1542,
      "Ġbased": 1543,
      "ĠOne": 1544,
      "lish": 1545,
      "Ġagainst": 1546,
      "soci": 1547,
      "ĠComm": 1548,
      "ĠChrist": 1549,
      "Ġask": 1550,
      "iven": 1551,
      "Ġla": 1552,
      "Ġpast": 1553,
      "Ġelect": 1554,
      "ows": 1555,
      "Ġinclude": 1556,
      "Ġprice": 1557,
      "atures": 1558,
      "Ġaccount": 1559,
      "Ġrequire": 1560,
      "Ġpage": 1561,
      "Ġperfect": 1562,
      "arent": 1563,
      "Ġside": 1564,
      "Ġbenef": 1565,
      "ina": 1566,
      "Ġtimes": 1567,
      "Ġkind": 1568,
      "Ġpot": 1569,
      "side": 1570,
      "Ġindividual": 1571,
      "Ġexpect": 1572,
      "ĠCent": 1573,
      "Ġmult": 1574,
      "veral": 1575,
      "Ġcommunity": 1576,
      "let": 1577,
      "viron": 1578,
      "ex": 1579,
      "Ġbeh": 1580,
      "fer": 1581,
      "ived": 1582,
      "Ġmar": 1583,
      "pecial": 1584,
      "ney": 1585,
      "ination": 1586,
      "cu": 1587,
      "vernment": 1588,
      "Ġtem": 1589,
      "ik": 1590,
      "Ġmeans": 1591,
      "Ġrecord": 1592,
      "Ġmembers": 1593,
      "ĠTr": 1594,
      "hor": 1595,
      "yle": 1596,
      "Ġwrit": 1597,
      "lling": 1598,
      "Ġcontrol": 1599,
      "oice": 1600,
      "Ġfour": 1601,
      "Ġword": 1602,
      "ured": 1603,
      "omen": 1604,
      "Ġbecome": 1605,
      "ĠHowever": 1606,
      "Ġes": 1607,
      "ĠUniversity": 1608,
      "Ġsol": 1609,
      "Ġmakes": 1610,
      "ĠGod": 1611,
      "ready": 1612,
      "Ġworks": 1613,
      "ency": 1614,
      "Ġline": 1615,
      "Ġclo": 1616,
      "Ġdone": 1617,
      "Ġopportun": 1618,
      "ken": 1619,
      "iting": 1620,
      "Ġlim": 1621,
      "Ġspecific": 1622,
      "Ġquick": 1623,
      "ĠAfter": 1624,
      "ĠCo": 1625,
      "ley": 1626,
      "lement": 1627,
      "Ġcou": 1628,
      "Ġdevelopment": 1629,
      "the": 1630,
      "Ġfocus": 1631,
      "Ġvari": 1632,
      "\".": 1633,
      "Ġcompan": 1634,
      "Ġsw": 1635,
      "Ġens": 1636,
      "ding": 1637,
      "Ġthing": 1638,
      "rop": 1639,
      "jor": 1640,
      "Ġcomes": 1641,
      "Ġtool": 1642,
      "Ġocc": 1643,
      "Ġeduc": 1644,
      "Ġenough": 1645,
      "aking": 1646,
      "ĠAm": 1647,
      "br": 1648,
      "Ġlow": 1649,
      "Ġmove": 1650,
      "ane": 1651,
      "Ġreview": 1652,
      "Ġnight": 1653,
      "ands": 1654,
      "Ġfut": 1655,
      "Ġcertain": 1656,
      "Ġste": 1657,
      "Ġalready": 1658,
      "conom": 1659,
      "ĠEng": 1660,
      "Ġtre": 1661,
      "ĠSu": 1662,
      "ript": 1663,
      "Ġothers": 1664,
      "Ġhot": 1665,
      "Ġnet": 1666,
      "Ġseveral": 1667,
      "Ġtyp": 1668,
      "Ġclean": 1669,
      "aim": 1670,
      "Ġleft": 1671,
      "Ġkey": 1672,
      "Ġshort": 1673,
      "Ġacross": 1674,
      "Ġjob": 1675,
      "uck": 1676,
      "Ġlive": 1677,
      "Ġbelow": 1678,
      "Ġnon": 1679,
      "oint": 1680,
      "Ġbody": 1681,
      "Ġspace": 1682,
      "Ġinstall": 1683,
      "Ġcover": 1684,
      "ĠApp": 1685,
      "aff": 1686,
      "vironment": 1687,
      "anks": 1688,
      "Ġhig": 1689,
      "Ġsocial": 1690,
      "Ġet": 1691,
      "Ġconsider": 1692,
      "Ġredu": 1693,
      "Ġanal": 1694,
      "Ġpurch": 1695,
      "Ġgetting": 1696,
      "ĠMar": 1697,
      "urs": 1698,
      "ĠFl": 1699,
      "Ġce": 1700,
      "Ġoffers": 1701,
      "ai": 1702,
      "Ġvers": 1703,
      "Ġshare": 1704,
      "IN": 1705,
      "Ġpack": 1706,
      "Ġever": 1707,
      "ches": 1708,
      "Ġcountry": 1709,
      "urther": 1710,
      "uro": 1711,
      "Ġhold": 1712,
      "ethod": 1713,
      "oring": 1714,
      "wards": 1715,
      "Ġfav": 1716,
      "Ġexample": 1717,
      "Ġfund": 1718,
      "Ġindustry": 1719,
      "ither": 1720,
      "Ġbit": 1721,
      "Ġmusic": 1722,
      "ĠEn": 1723,
      "ograph": 1724,
      "Ġdeli": 1725,
      "Ġparticular": 1726,
      "Ġcompanies": 1727,
      "Ġfar": 1728,
      "Ġorig": 1729,
      "Ġmajor": 1730,
      "Ġcompet": 1731,
      "Ġfuture": 1732,
      "ged": 1733,
      "Ġrange": 1734,
      "by": 1735,
      "alf": 1736,
      "Ġmind": 1737,
      "Ġboo": 1738,
      "urity": 1739,
      "ances": 1740,
      "Ġexpl": 1741,
      "ides": 1742,
      "ĠComp": 1743,
      "ording": 1744,
      "Ġfore": 1745,
      "ully": 1746,
      "The": 1747,
      "ĠMay": 1748,
      "ĠCar": 1749,
      "Ġstep": 1750,
      "Ġdoing": 1751,
      "ĠYour": 1752,
      "Ġdeal": 1753,
      "Ġcity": 1754,
      "ots": 1755,
      "Ġonce": 1756,
      "ee": 1757,
      "Ġvalue": 1758,
      "ĠCont": 1759,
      "ĠTra": 1760,
      "Ġmean": 1761,
      "err": 1762,
      "ference": 1763,
      "Ġchoo": 1764,
      "Ġemail": 1765,
      "Ġcal": 1766,
      "Ġbring": 1767,
      "Ġpriv": 1768,
      "Ġleast": 1769,
      "Ġcamp": 1770,
      "ilt": 1771,
      "Ġprep": 1772,
      "iful": 1773,
      "osed": 1774,
      "ners": 1775,
      "ĠInst": 1776,
      "Ġseason": 1777,
      "Ġrecomm": 1778,
      "ĠPr": 1779,
      "urance": 1780,
      "Ġhours": 1781,
      "most": 1782,
      "inc": 1783,
      "Ġactually": 1784,
      "Ġstory": 1785,
      "ribut": 1786,
      "Ġrecommend": 1787,
      "ES": 1788,
      "Ġcomb": 1789,
      "ones": 1790,
      "Ġstudy": 1791,
      "lf": 1792,
      "Ġcustomers": 1793,
      "Ġinvol": 1794,
      "Ġident": 1795,
      "Ġwind": 1796,
      "Ġstarted": 1797,
      "Ġbuilding": 1798,
      "Ġvol": 1799,
      "ilities": 1800,
      "ift": 1801,
      "Ġcalled": 1802,
      "atic": 1803,
      "cle": 1804,
      "Ġfield": 1805,
      "Ġreason": 1806,
      "'d": 1807,
      "Ġfeatures": 1808,
      "Ġproblem": 1809,
      "ĠSy": 1810,
      "Ġreturn": 1811,
      "Ġvideo": 1812,
      "fort": 1813,
      "ĠIntern": 1814,
      "aces": 1815,
      "Ġaddress": 1816,
      "ON": 1817,
      "Ġbed": 1818,
      "Ġris": 1819,
      "Ġcut": 1820,
      "ĠChe": 1821,
      "ĠServ": 1822,
      "Ġchall": 1823,
      "ape": 1824,
      "cell": 1825,
      "Ġbrand": 1826,
      "Ġtechnology": 1827,
      "ource": 1828,
      "ĠX": 1829,
      "ĠWor": 1830,
      "Ġess": 1831,
      "Ġmethod": 1832,
      "ec": 1833,
      "ster": 1834,
      "Ġsum": 1835,
      "Ġrespons": 1836,
      "ĠRo": 1837,
      "Ġstrong": 1838,
      "Ġproperty": 1839,
      "ources": 1840,
      "Ġcontent": 1841,
      "Ġamount": 1842,
      "arning": 1843,
      "Ġz": 1844,
      "Ġmil": 1845,
      "Ġpie": 1846,
      "Ġquestions": 1847,
      "Ġpict": 1848,
      "bal": 1849,
      "Ġfriends": 1850,
      "Ġprofessional": 1851,
      "Ġclose": 1852,
      "duct": 1853,
      "Ġenvironment": 1854,
      "Ġdidn": 1855,
      "ĠDes": 1856,
      "Ġminutes": 1857,
      "ĠSte": 1858,
      "Ġwa": 1859,
      "Ġdiscuss": 1860,
      "Ġabove": 1861,
      "Ġsuper": 1862,
      "atural": 1863,
      "ford": 1864,
      "go": 1865,
      "Ġtraining": 1866,
      "resent": 1867,
      "lished": 1868,
      "ply": 1869,
      "Ġplease": 1870,
      "Ġweb": 1871,
      "Ġstay": 1872,
      "enn": 1873,
      "AT": 1874,
      "Ġtax": 1875,
      "Ġsearch": 1876,
      "Ġdr": 1877,
      "Ġcharact": 1878,
      "uf": 1879,
      "Ġtype": 1880,
      "Ġdoesn": 1881,
      "ĠGu": 1882,
      "Ġresults": 1883,
      "Ġheart": 1884,
      "Ġeverything": 1885,
      "Ġport": 1886,
      "icy": 1887,
      "Ġbegin": 1888,
      "ino": 1889,
      "unch": 1890,
      "ister": 1891,
      "ancial": 1892,
      "sw": 1893,
      "Ġ,": 1894,
      "Ġgovernment": 1895,
      "iod": 1896,
      "Ġoffic": 1897,
      "Ġexc": 1898,
      "Ġyoung": 1899,
      "not": 1900,
      "Ġdownload": 1901,
      "Ġtot": 1902,
      "ergy": 1903,
      "Ġmonths": 1904,
      "crib": 1905,
      "ips": 1906,
      "Ġgiven": 1907,
      "Ġmom": 1908,
      "Ġprovides": 1909,
      "ĠMed": 1910,
      "Ġknown": 1911,
      "Ġsimple": 1912,
      "ĠFe": 1913,
      "cks": 1914,
      "rap": 1915,
      "ched": 1916,
      "Ġsingle": 1917,
      "light": 1918,
      "Ġupd": 1919,
      "ledge": 1920,
      "Ġsound": 1921,
      "Ġcomput": 1922,
      "Ġcred": 1923,
      "sh": 1924,
      "pecially": 1925,
      "ulation": 1926,
      "ians": 1927,
      "Ġenc": 1928,
      "Ġmanagement": 1929,
      "ĠMe": 1930,
      "Ġmillion": 1931,
      "Ġwon": 1932,
      "Ġrepl": 1933,
      "Ġey": 1934,
      "Ġearly": 1935,
      "Ġmess": 1936,
      "Ġthought": 1937,
      "Ġmot": 1938,
      "Ġrele": 1939,
      "app": 1940,
      "ring": 1941,
      "Ġyet": 1942,
      "Ġrequired": 1943,
      "Ġwond": 1944,
      "Ġmen": 1945,
      "Ġpress": 1946,
      "osp": 1947,
      "Ġtas": 1948,
      "Ġflo": 1949,
      "Ġvarious": 1950,
      "idd": 1951,
      "Ġbar": 1952,
      "ĠBo": 1953,
      "Ġdiff": 1954,
      "Ġhope": 1955,
      "AN": 1956,
      "hers": 1957,
      "acy": 1958,
      "Ġimprove": 1959,
      "ĠNot": 1960,
      "Ġtravel": 1961,
      "over": 1962,
      "ensive": 1963,
      "ĠPlease": 1964,
      "Ġfollowing": 1965,
      "Ġexam": 1966,
      "Ġcult": 1967,
      "Ġeconom": 1968,
      "Ġcame": 1969,
      "Ġwhether": 1970,
      "Ġconnect": 1971,
      "Ġcard": 1972,
      "Ġcra": 1973,
      "ĠAmerican": 1974,
      "resh": 1975,
      "hn": 1976,
      "fully": 1977,
      "Ġsize": 1978,
      "Ġant": 1979,
      "ibility": 1980,
      "Ġtook": 1981,
      "irm": 1982,
      "ges": 1983,
      "Ġareas": 1984,
      "Ġenergy": 1985,
      "Ġissues": 1986,
      "Ġpercent": 1987,
      "ĠNow": 1988,
      "Ġappear": 1989,
      "illed": 1990,
      "asing": 1991,
      "pro": 1992,
      "che": 1993,
      "Ġdue": 1994,
      "ead": 1995,
      "idence": 1996,
      "Ġbeautiful": 1997,
      "Ġperformance": 1998,
      "ĠRep": 1999,
      "ume": 2000,
      "ental": 2001,
      "Ġunique": 2002,
      "Ġfurther": 2003,
      "iday": 2004,
      "Ġtell": 2005,
      "ĠWhile": 2006,
      "une": 2007,
      "Ġmeas": 2008,
      "mber": 2009,
      "Ġhappen": 2010,
      "AR": 2011,
      "Ġmedia": 2012,
      "Ġliving": 2013,
      "vert": 2014,
      "augh": 2015,
      "Ġcustomer": 2016,
      "abor": 2017,
      "Ġexperien": 2018,
      "Ġmanag": 2019,
      "Ġwhole": 2020,
      "Ġassist": 2021,
      "Ġcommon": 2022,
      "ĠUnited": 2023,
      "Ġperiod": 2024,
      "ufact": 2025,
      "Ġele": 2026,
      "uff": 2027,
      "Ġclaim": 2028,
      "gs": 2029,
      "Ġdesigned": 2030,
      "icult": 2031,
      "ĠSome": 2032,
      "Ġidea": 2033,
      "ogn": 2034,
      "cript": 2035,
      "Ġ[": 2036,
      "Ġsomeone": 2037,
      "Ġaud": 2038,
      "Ġselect": 2039,
      "ĠÂ": 2040,
      "ites": 2041,
      "ĠIm": 2042,
      "ication": 2043,
      "ww": 2044,
      "Ġstaff": 2045,
      "ony": 2046,
      "Ġauthor": 2047,
      "Ġfre": 2048,
      "Ġprint": 2049,
      "xim": 2050,
      "Ġlater": 2051,
      "Ġincludes": 2052,
      "ruction": 2053,
      "book": 2054,
      "aps": 2055,
      "ĠEuro": 2056,
      "ggest": 2057,
      "though": 2058,
      "mb": 2059,
      "Ġseen": 2060,
      "Ġnear": 2061,
      "Ġeffective": 2062,
      "Ġprovided": 2063,
      "Ġtable": 2064,
      "Ġ/": 2065,
      "Ġtext": 2066,
      "play": 2067,
      "Ġstrateg": 2068,
      "Ġfront": 2069,
      "reet": 2070,
      "Ġhost": 2071,
      "Ġprob": 2072,
      "Ġtaking": 2073,
      "Ġrelations": 2074,
      "Ġphys": 2075,
      "tt": 2076,
      "Ġnews": 2077,
      "Ġparticip": 2078,
      "Ġapplication": 2079,
      "ables": 2080,
      "Ġnecess": 2081,
      "Ġdig": 2082,
      "wh": 2083,
      "rict": 2084,
      "Ġamong": 2085,
      "ls": 2086,
      "Ġsoftware": 2087,
      "Ġensure": 2088,
      "omes": 2089,
      "ctor": 2090,
      "ored": 2091,
      "Ġeither": 2092,
      "Ġtal": 2093,
      "Ġdam": 2094,
      "Ġage": 2095,
      "Ġentire": 2096,
      "Ġeff": 2097,
      "Ġdocu": 2098,
      "eral": 2099,
      "ided": 2100,
      "lege": 2101,
      "come": 2102,
      "urch": 2103,
      "Ġmach": 2104,
      "Ġhuman": 2105,
      "Ġneeded": 2106,
      "Ġsignific": 2107,
      "Ġwomen": 2108,
      "Ġespecially": 2109,
      "ained": 2110,
      "gr": 2111,
      "ification": 2112,
      "Ġsuggest": 2113,
      "Ġchoose": 2114,
      "Ġcond": 2115,
      "par": 2116,
      "ler": 2117,
      "Ġquite": 2118,
      "Ġengine": 2119,
      "Ġbelieve": 2120,
      "ĠBy": 2121,
      "hing": 2122,
      "Ġpotential": 2123,
      "nov": 2124,
      "Ġsimply": 2125,
      "itted": 2126,
      "Ġsays": 2127,
      "astic": 2128,
      "selves": 2129,
      "aur": 2130,
      "Ġconcer": 2131,
      "Ġoffice": 2132,
      "Ġach": 2133,
      "ili": 2134,
      "Ġsn": 2135,
      "Ġcir": 2136,
      "Ġcomfort": 2137,
      "af": 2138,
      "Ġrequest": 2139,
      "rodu": 2140,
      "Ġseries": 2141,
      "Ġhistory": 2142,
      "rew": 2143,
      "Ġparent": 2144,
      "nam": 2145,
      "Ġglo": 2146,
      "irt": 2147,
      "lex": 2148,
      "OR": 2149,
      "Ġfunction": 2150,
      "Ġwent": 2151,
      "Ġprotect": 2152,
      "Ġland": 2153,
      "Ġdifficult": 2154,
      "Ġetc": 2155,
      "Ġmag": 2156,
      "Ġoptions": 2157,
      "Ġspend": 2158,
      "Ġyourself": 2159,
      "Ġmoder": 2160,
      "Ġfinancial": 2161,
      "ĠJust": 2162,
      "Ġexist": 2163,
      "iously": 2164,
      "Ġwide": 2165,
      "AS": 2166,
      "Ġquestion": 2167,
      "inking": 2168,
      "itc": 2169,
      "aching": 2170,
      "imate": 2171,
      "ued": 2172,
      "Ġphone": 2173,
      "gra": 2174,
      "Ġoil": 2175,
      "Ġideas": 2176,
      "Ġsystems": 2177,
      "Ġface": 2178,
      "ators": 2179,
      "Ġeveryone": 2180,
      "uation": 2181,
      "ilar": 2182,
      "Ġalmost": 2183,
      "Ġwall": 2184,
      "ĠCity": 2185,
      "Ġinit": 2186,
      "Ġdeterm": 2187,
      "ĠEurope": 2188,
      "ops": 2189,
      "Ġlikely": 2190,
      "Ġnatural": 2191,
      "ĠSchool": 2192,
      "Ġfive": 2193,
      "Ġhowever": 2194,
      "Ġbreak": 2195,
      "Ġmiss": 2196,
      "Ġclear": 2197,
      "ĠJohn": 2198,
      "Ġknowledge": 2199,
      "Ġtour": 2200,
      "Ġextra": 2201,
      "ĠGo": 2202,
      "ĠÐ": 2203,
      "Ġfavor": 2204,
      "ĠMin": 2205,
      "Ġansw": 2206,
      "ĠDr": 2207,
      "ĠDis": 2208,
      "Ġdou": 2209,
      "Ġhalf": 2210,
      "Ġways": 2211,
      "ĠCal": 2212,
      "ĠGra": 2213,
      "ĠPer": 2214,
      "azing": 2215,
      "ires": 2216,
      "son": 2217,
      "Ġveh": 2218,
      "Ġanything": 2219,
      "gest": 2220,
      "Ġself": 2221,
      "oid": 2222,
      "Ġuser": 2223,
      "Ġevents": 2224,
      "gle": 2225,
      "Ġrepresent": 2226,
      "ees": 2227,
      "Ġposition": 2228,
      "Ġinsurance": 2229,
      "yl": 2230,
      "Ġcolor": 2231,
      "Ġfit": 2232,
      "Ġproblems": 2233,
      "Ġpopular": 2234,
      "Ġred": 2235,
      "angu": 2236,
      "Ġwriting": 2237,
      "ED": 2238,
      "Ġstyle": 2239,
      "face": 2240,
      "Ġpan": 2241,
      "Ġhy": 2242,
      "ĠHere": 2243,
      "ises": 2244,
      "Ġsoon": 2245,
      "Ġregard": 2246,
      "Ġissue": 2247,
      "Ġsignificant": 2248,
      "ibr": 2249,
      "Ġcreated": 2250,
      "ĠCount": 2251,
      "Ġautom": 2252,
      "ĠAg": 2253,
      "Ġusers": 2254,
      "ief": 2255,
      "ĠKe": 2256,
      "arr": 2257,
      "Ġabs": 2258,
      "Ġwatch": 2259,
      "Ġstruct": 2260,
      "Ġdeb": 2261,
      "Ġadded": 2262,
      "ĠPre": 2263,
      "ĠPe": 2264,
      "00000000": 2265,
      "Ġmodel": 2266,
      "Ġwhite": 2267,
      "Ġclients": 2268,
      "Ġagree": 2269,
      "Ġsecurity": 2270,
      "Ġmanufact": 2271,
      "Ġcrit": 2272,
      "Ġtrack": 2273,
      "ĠPart": 2274,
      "Ġgames": 2275,
      "ĠQu": 2276,
      "Ġaccept": 2277,
      "Ġfall": 2278,
      "reme": 2279,
      "ĠState": 2280,
      "time": 2281,
      "ĠSouth": 2282,
      "anced": 2283,
      "itch": 2284,
      "Ġtaken": 2285,
      "Ġthird": 2286,
      "Ġmor": 2287,
      "pper": 2288,
      "Ġfire": 2289,
      "rown": 2290,
      "Ġcontract": 2291,
      "ze": 2292,
      "Ġlearning": 2293,
      "Ġago": 2294,
      "ĠBr": 2295,
      "back": 2296,
      "aining": 2297,
      "Ġreceive": 2298,
      "iple": 2299,
      "ipment": 2300,
      "Ġblack": 2301,
      "Ġdetails": 2302,
      "iver": 2303,
      "Ġfast": 2304,
      "ĠAb": 2305,
      "Ġpick": 2306,
      "val": 2307,
      "etimes": 2308,
      "Ġrelationship": 2309,
      "Ġincrease": 2310,
      "uge": 2311,
      "Ġimpact": 2312,
      "Ġlay": 2313,
      "ĠStud": 2314,
      "EN": 2315,
      "Ġassoci": 2316,
      "Ġpaper": 2317,
      "Ġfail": 2318,
      "Ġready": 2319,
      "ille": 2320,
      "ĠWill": 2321,
      "Ġchanges": 2322,
      "Ġcoll": 2323,
      "Ġseem": 2324,
      "Ġthroughout": 2325,
      "Ġfeature": 2326,
      "Ġut": 2327,
      "ights": 2328,
      "Ġopportunity": 2329,
      "Ġforward": 2330,
      "Ġrisk": 2331,
      "ĠAust": 2332,
      "new": 2333,
      "Ġeducation": 2334,
      "opy": 2335,
      "ball": 2336,
      "elt": 2337,
      "Ġsafe": 2338,
      "Ġsend": 2339,
      "Ġsho": 2340,
      "ĠSec": 2341,
      "Ġroad": 2342,
      "olutions": 2343,
      "Ġrate": 2344,
      "Ġsubject": 2345,
      "Ġhigher": 2346,
      "Ġcell": 2347,
      "ĠInc": 2348,
      "Ġskills": 2349,
      "ok": 2350,
      "itchen": 2351,
      "ĠNational": 2352,
      "Ġestab": 2353,
      "ĠDon": 2354,
      "Ġdate": 2355,
      "put": 2356,
      "ĠTw": 2357,
      "Ġregular": 2358,
      "Ġbox": 2359,
      "Ġusually": 2360,
      "ĠNorth": 2361,
      "Ġbad": 2362,
      "ung": 2363,
      "rie": 2364,
      "Ġstra": 2365,
      "Ġdepend": 2366,
      "ĠBu": 2367,
      "Ġfoot": 2368,
      "ĠFrom": 2369,
      "Ġfilm": 2370,
      "Ġprojects": 2371,
      "Ġwonder": 2372,
      "medi": 2373,
      "Ġlink": 2374,
      "rect": 2375,
      "Ġconsum": 2376,
      "Ġlat": 2377,
      "eter": 2378,
      "Ġtreatment": 2379,
      "atur": 2380,
      "ĠMr": 2381,
      "Ġtakes": 2382,
      "ĠHis": 2383,
      "Ġoutside": 2384,
      "verage": 2385,
      "Ġskin": 2386,
      "apt": 2387,
      "Ġmatter": 2388,
      "Ġsales": 2389,
      "Ġkids": 2390,
      "icated": 2391,
      "Ġcoming": 2392,
      "Ġdel": 2393,
      "do": 2394,
      "Ġexcell": 2395,
      "Ġcurrently": 2396,
      "Ġrespect": 2397,
      "mit": 2398,
      "ux": 2399,
      "Ġda": 2400,
      "Ġrather": 2401,
      "ĠThanks": 2402,
      "Ġtou": 2403,
      "Ġtradition": 2404,
      "Ġeasily": 2405,
      "Ġelse": 2406,
      "icro": 2407,
      "Ġwood": 2408,
      "Ġtalk": 2409,
      "Ġmob": 2410,
      "Ġinsp": 2411,
      "ried": 2412,
      "Ġjour": 2413,
      "\",": 2414,
      "Ġaf": 2415,
      "Ġlocated": 2416,
      "Ġblog": 2417,
      "Ġcoun": 2418,
      "minist": 2419,
      "ĠSm": 2420,
      "Ġdefin": 2421,
      "ival": 2422,
      "vent": 2423,
      "Ġstore": 2424,
      "Ġchoice": 2425,
      "ĠJan": 2426,
      "Ġnice": 2427,
      "Ġpractice": 2428,
      "Ġadditional": 2429,
      "Ġpret": 2430,
      "ĠTH": 2431,
      "Ġoriginal": 2432,
      "umb": 2433,
      "where": 2434,
      "Ġsent": 2435,
      "Ġtrying": 2436,
      "empt": 2437,
      "Ġwalk": 2438,
      "Ġcontinue": 2439,
      "ha": 2440,
      "Ġaction": 2441,
      "Ġsle": 2442,
      "Ġparty": 2443,
      "ĠWorld": 2444,
      "IS": 2445,
      "Ġprobably": 2446,
      "oon": 2447,
      "ew": 2448,
      "Ġvariety": 2449,
      "oura": 2450,
      "Ġactivities": 2451,
      "AL": 2452,
      "ules": 2453,
      "itor": 2454,
      "Ġill": 2455,
      "ison": 2456,
      "IC": 2457,
      "Ġbuilt": 2458,
      "Ġstat": 2459,
      "Ġfinal": 2460,
      "Ġprivate": 2461,
      "ĠAcc": 2462,
      "Ġstandard": 2463,
      "Ġbott": 2464,
      "Ġimage": 2465,
      "used": 2466,
      "ĠPar": 2467,
      "Ġ#": 2468,
      "itut": 2469,
      "Ġrunning": 2470,
      "Ġmaintain": 2471,
      "Ġinfl": 2472,
      "ĠUs": 2473,
      "Ġinside": 2474,
      "arget": 2475,
      "Ġcannot": 2476,
      "Ġwanted": 2477,
      "Ġversion": 2478,
      "Ġrecogn": 2479,
      "Ġhappy": 2480,
      "IT": 2481,
      "Ġlonger": 2482,
      "Ġcharacter": 2483,
      "itting": 2484,
      "Ġsimilar": 2485,
      "Ġcode": 2486,
      "Ġtotal": 2487,
      "Ġexact": 2488,
      "ground": 2489,
      "Ġreceived": 2490,
      "itten": 2491,
      "ĠReg": 2492,
      "Ġmember": 2493,
      "ĠHigh": 2494,
      "Ġprior": 2495,
      "Ġattend": 2496,
      "Ã©": 2497,
      "Ġmarketing": 2498,
      "Ġpretty": 2499,
      "Ġrole": 2500,
      "Ġsens": 2501,
      "Ġitems": 2502,
      "Ġeffic": 2503,
      "Ġapply": 2504,
      "Ġsave": 2505,
      "hib": 2506,
      "Ġinj": 2507,
      "ĠAf": 2508,
      "Ġvia": 2509,
      "ĠApr": 2510,
      "Ġaccording": 2511,
      "Ġgeneral": 2512,
      "Ġobject": 2513,
      "Ġcollect": 2514,
      "Ġcredit": 2515,
      "ĠGe": 2516,
      "head": 2517,
      "Ġconcern": 2518,
      "Ġstop": 2519,
      "Ġisn": 2520,
      "Ġproduction": 2521,
      "aving": 2522,
      "Ġwords": 2523,
      "Ġallows": 2524,
      "ĠAct": 2525,
      "Ġquickly": 2526,
      "Ġworth": 2527,
      "Ġfile": 2528,
      "Ġshall": 2529,
      "Ġbal": 2530,
      "action": 2531,
      "Ġpoints": 2532,
      "Ġmaterials": 2533,
      "ĠStates": 2534,
      "Ġtrue": 2535,
      "Ġweight": 2536,
      "Ġcool": 2537,
      "aced": 2538,
      "ĠFin": 2539,
      "Ġcomputer": 2540,
      "Ġrecent": 2541,
      "Ġcosts": 2542,
      "pri": 2543,
      "Ġbooks": 2544,
      "ada": 2545,
      "izing": 2546,
      "Ġtold": 2547,
      "Ġheld": 2548,
      "atform": 2549,
      "Ġgrowth": 2550,
      "Ġmodern": 2551,
      "Ġx": 2552,
      "ĠPres": 2553,
      "Ġreading": 2554,
      "Ġdeg": 2555,
      "Ġswe": 2556,
      "Ġdrive": 2557,
      "Ġamazing": 2558,
      "Ġshows": 2559,
      "ĠYork": 2560,
      "airs": 2561,
      "Ġweeks": 2562,
      "idge": 2563,
      "atory": 2564,
      "Ġloss": 2565,
      "ĠPark": 2566,
      "Ġdom": 2567,
      "Ġanim": 2568,
      "Ġupon": 2569,
      "Ġsix": 2570,
      "inks": 2571,
      "ceed": 2572,
      "Ġground": 2573,
      "Ġannoun": 2574,
      "ĠBra": 2575,
      "Ġrelated": 2576,
      "Ġinde": 2577,
      "Ġleave": 2578,
      "Ġsaf": 2579,
      "iring": 2580,
      "Ġhol": 2581,
      "Ġsun": 2582,
      "amer": 2583,
      "Ġofficial": 2584,
      "ox": 2585,
      "Ġhon": 2586,
      "Ġproviding": 2587,
      "Ġincluded": 2588,
      "Ġlatest": 2589,
      "aging": 2590,
      "Ġpolit": 2591,
      "oud": 2592,
      "ĠEm": 2593,
      "ression": 2594,
      "ĠAre": 2595,
      "Ġcause": 2596,
      "AC": 2597,
      "Ġconditions": 2598,
      "erc": 2599,
      "Ġnecessary": 2600,
      "Ġpolicy": 2601,
      "ĠArt": 2602,
      "Ġapproach": 2603,
      "Ġpatients": 2604,
      "Ġmedical": 2605,
      "Ġability": 2606,
      "Ġneg": 2607,
      "Ġnetwork": 2608,
      "Ġoption": 2609,
      "icles": 2610,
      "ĠDep": 2611,
      "Ġlocation": 2612,
      "hold": 2613,
      "Ġlower": 2614,
      "ĠAut": 2615,
      "Ġflow": 2616,
      "ĠCor": 2617,
      "Ġbehind": 2618,
      "Ġaffect": 2619,
      "Ġdisplay": 2620,
      "ecut": 2621,
      "ĠInt": 2622,
      "Ġteac": 2623,
      "Ġanyone": 2624,
      "Ġbase": 2625,
      "Ġsolution": 2626,
      "Ġtools": 2627,
      "ysis": 2628,
      "Ġpurchase": 2629,
      "Ġequipment": 2630,
      "Ġlangu": 2631,
      "Ġgen": 2632,
      "Ġstri": 2633,
      "Ġnorm": 2634,
      "Ġarticle": 2635,
      "Ġsummer": 2636,
      "Ġterms": 2637,
      "ĠThen": 2638,
      "oman": 2639,
      "Ġvi": 2640,
      "Ġsell": 2641,
      "Ġrad": 2642,
      "ĠOf": 2643,
      "ĠCenter": 2644,
      "wor": 2645,
      "ĠEvery": 2646,
      "Ġspeed": 2647,
      "ĠBar": 2648,
      "iter": 2649,
      "ĠMost": 2650,
      "Ġemb": 2651,
      "Ðµ": 2652,
      "Ġprograms": 2653,
      "Ġcouple": 2654,
      "Ġtown": 2655,
      "based": 2656,
      "pose": 2657,
      "ĠAlso": 2658,
      "Ġmix": 2659,
      "Ġtypes": 2660,
      "ĠMore": 2661,
      "adem": 2662,
      "Ġworked": 2663,
      "Ġchalleng": 2664,
      "Ġintrodu": 2665,
      "Ġrecently": 2666,
      "Ġcele": 2667,
      "Ġlooks": 2668,
      "ĠWest": 2669,
      "Ġfig": 2670,
      "ublic": 2671,
      "ana": 2672,
      "Ġlives": 2673,
      "Ġclick": 2674,
      "Ġrent": 2675,
      "Ġarr": 2676,
      "ky": 2677,
      "ening": 2678,
      "ĠUK": 2679,
      "Ġple": 2680,
      "ters": 2681,
      "Ġlic": 2682,
      "ĠOff": 2683,
      "Ġfa": 2684,
      "Ġprim": 2685,
      "reg": 2686,
      "Ġboard": 2687,
      "RE": 2688,
      "ively": 2689,
      "ores": 2690,
      "ĠOct": 2691,
      "ese": 2692,
      "Ġdescrib": 2693,
      "ĠEd": 2694,
      "Ġinternational": 2695,
      "Ġstudent": 2696,
      "Ġbi": 2697,
      "Ġparts": 2698,
      "Ġarri": 2699,
      "Ġdeep": 2700,
      "Ġfeed": 2701,
      "Ġsat": 2702,
      "Ġspeak": 2703,
      "my": 2704,
      "ĠMc": 2705,
      "ming": 2706,
      "Ð¾": 2707,
      "iam": 2708,
      "Ġexcellent": 2709,
      "Ġmov": 2710,
      "Ġdest": 2711,
      "Ġdevice": 2712,
      "nds": 2713,
      "Ġones": 2714,
      "ĠApril": 2715,
      "Ġcondition": 2716,
      "Ġnothing": 2717,
      "Ġhair": 2718,
      "erve": 2719,
      "Ġtarget": 2720,
      "Ġ00000": 2721,
      "Ġseems": 2722,
      "Ġexpert": 2723,
      "Ġcommer": 2724,
      "hy": 2725,
      "nal": 2726,
      "Ġfresh": 2727,
      "Ġsepar": 2728,
      "Ġdraw": 2729,
      "Ġsche": 2730,
      "Ġlevels": 2731,
      "Ġcook": 2732,
      "Ġasked": 2733,
      "Ġscreen": 2734,
      "Ġmeeting": 2735,
      "Ġbud": 2736,
      "ension": 2737,
      "aby": 2738,
      "na": 2739,
      "ham": 2740,
      "Ġconc": 2741,
      "Ġleaders": 2742,
      "Ġgoal": 2743,
      "Ġbath": 2744,
      "Ġsong": 2745,
      "Ġplatform": 2746,
      "Ġsale": 2747,
      "Ġsafety": 2748,
      "Ġbenefits": 2749,
      "Ġpers": 2750,
      "bor": 2751,
      "Ġplans": 2752,
      "ĠJu": 2753,
      "iforn": 2754,
      "Ġimmedi": 2755,
      "istic": 2756,
      "akes": 2757,
      "Ġregist": 2758,
      "Ġkitchen": 2759,
      "Ġchance": 2760,
      "Ġcollection": 2761,
      "ĠAir": 2762,
      "Ġsqu": 2763,
      "--": 2764,
      "Ġtrust": 2765,
      "ĠLet": 2766,
      "Ġcy": 2767,
      "cil": 2768,
      "Ġsett": 2769,
      "??": 2770,
      "ipe": 2771,
      "ooking": 2772,
      "Ġencoura": 2773,
      "ĠSw": 2774,
      "ached": 2775,
      "Ġhighly": 2776,
      "reng": 2777,
      "ifornia": 2778,
      "oogle": 2779,
      "Ġmultiple": 2780,
      "cast": 2781,
      "ĠPol": 2782,
      "cription": 2783,
      "Ġresources": 2784,
      "Ġfram": 2785,
      "ples": 2786,
      "Ġrequirements": 2787,
      "Ġplant": 2788,
      "Ġtit": 2789,
      "Ġ...": 2790,
      "....": 2791,
      "earch": 2792,
      "Ġprices": 2793,
      "Ġleading": 2794,
      "Ġclos": 2795,
      "clus": 2796,
      "ĠAmerica": 2797,
      "ĠAustral": 2798,
      "gu": 2799,
      "ĠDay": 2800,
      "ĠMany": 2801,
      "Ġmobile": 2802,
      "ffe": 2803,
      "Ġcand": 2804,
      "Ġsource": 2805,
      "Ġsense": 2806,
      "Ġhuge": 2807,
      "OS": 2808,
      "ging": 2809,
      "ĠHealth": 2810,
      "ession": 2811,
      "Ġstock": 2812,
      "Ġdecision": 2813,
      "Ġexplo": 2814,
      "Ġminim": 2815,
      "Ġfurn": 2816,
      "Ġcountries": 2817,
      "Ġgives": 2818,
      "ĠFirst": 2819,
      "Ġrout": 2820,
      "ĠCounty": 2821,
      "Ġsection": 2822,
      "Ġhelps": 2823,
      "Ġnational": 2824,
      "OT": 2825,
      "ĠHer": 2826,
      "lier": 2827,
      "Ġcases": 2828,
      "iet": 2829,
      "ishing": 2830,
      "orage": 2831,
      "mas": 2832,
      "uary": 2833,
      "arth": 2834,
      "ological": 2835,
      "sy": 2836,
      "Ġmoment": 2837,
      "ĠGet": 2838,
      "Ġdaily": 2839,
      "ma": 2840,
      "Ġexcept": 2841,
      "Ġsolutions": 2842,
      "Ġded": 2843,
      "year": 2844,
      "anc": 2845,
      "Ġarch": 2846,
      "Ġfix": 2847,
      "ĠThank": 2848,
      "Ġextreme": 2849,
      "Ġitself": 2850,
      "Ġround": 2851,
      "Ġball": 2852,
      "Ġmass": 2853,
      "ĠMarch": 2854,
      "iddle": 2855,
      "Ġlif": 2856,
      "str": 2857,
      "irit": 2858,
      "Ġcommercial": 2859,
      "Ġfavorite": 2860,
      "inary": 2861,
      "Ġwritten": 2862,
      "just": 2863,
      "Ġmount": 2864,
      "Ġenter": 2865,
      "Ġcat": 2866,
      "ĠEven": 2867,
      "sc": 2868,
      "ĠVal": 2869,
      "Ġobs": 2870,
      "ivity": 2871,
      "arden": 2872,
      "Ġdigital": 2873,
      "Ġinvolved": 2874,
      "//": 2875,
      "ĠOnce": 2876,
      "Ġglobal": 2877,
      "Ġthemselves": 2878,
      "Ġlate": 2879,
      "Ġcorrect": 2880,
      "bit": 2881,
      "Ġinnov": 2882,
      "ests": 2883,
      "Ġinstead": 2884,
      "Ġdoor": 2885,
      "mon": 2886,
      "Ġimages": 2887,
      "iture": 2888,
      "ĠWind": 2889,
      "Ġdise": 2890,
      "oke": 2891,
      "Ġmatch": 2892,
      "urg": 2893,
      "board": 2894,
      "ĠEl": 2895,
      "Ġqual": 2896,
      "Ġphotos": 2897,
      "Ġdirectly": 2898,
      "Ġwrite": 2899,
      "Ġaverage": 2900,
      "edding": 2901,
      "illing": 2902,
      "Ġcenter": 2903,
      "Ġimplement": 2904,
      "OU": 2905,
      "ĠGr": 2906,
      "Ġparents": 2907,
      "ĠAny": 2908,
      "Ġtouch": 2909,
      "Ġsil": 2910,
      "00000": 2911,
      "urer": 2912,
      "ĠCons": 2913,
      "like": 2914,
      "://": 2915,
      "Ġmorning": 2916,
      "Ġsuit": 2917,
      "atives": 2918,
      "Ġdocument": 2919,
      "ĠInternational": 2920,
      "Ġfully": 2921,
      "Ġpiece": 2922,
      "iding": 2923,
      "itation": 2924,
      "Ġmention": 2925,
      "ĠSince": 2926,
      "Ġaw": 2927,
      "ern": 2928,
      "Ġdeliver": 2929,
      "Ġgreen": 2930,
      "Ġsites": 2931,
      "Ġattention": 2932,
      "isions": 2933,
      "ĠHome": 2934,
      "ĠAc": 2935,
      "Ġimm": 2936,
      "Ġessential": 2937,
      "Ġplanning": 2938,
      "itely": 2939,
      "erous": 2940,
      "ĠGreat": 2941,
      "ences": 2942,
      "Ġmachine": 2943,
      "ĠNet": 2944,
      "Ġlost": 2945,
      "arter": 2946,
      "wise": 2947,
      "Ġlegal": 2948,
      "Ġpartners": 2949,
      "Ġremember": 2950,
      "izes": 2951,
      "partment": 2952,
      "ondon": 2953,
      "Ġdecided": 2954,
      "Ġcareer": 2955,
      "Ġclient": 2956,
      "Ġcompletely": 2957,
      "Ġprem": 2958,
      "Ġblood": 2959,
      "Ġinteresting": 2960,
      "Ġdeath": 2961,
      "Ġfloor": 2962,
      "Ġ*": 2963,
      "ĠHouse": 2964,
      "Ġmyself": 2965,
      "ĠSept": 2966,
      "Ġprevent": 2967,
      "ĠMon": 2968,
      "Ġhands": 2969,
      "AM": 2970,
      "agn": 2971,
      "idered": 2972,
      "Ġattack": 2973,
      "Ġanswer": 2974,
      "Ġsupply": 2975,
      "Ġstreng": 2976,
      "Ġcreating": 2977,
      "ĠSim": 2978,
      "asons": 2979,
      "Ġgir": 2980,
      "dule": 2981,
      "ober": 2982,
      "hern": 2983,
      "Ġcas": 2984,
      "Ġri": 2985,
      "onse": 2986,
      "ĠPa": 2987,
      "Ġwarm": 2988,
      "eal": 2989,
      "Ġsaw": 2990,
      "Ġachieve": 2991,
      "iction": 2992,
      "Ġrestaur": 2993,
      "Ġear": 2994,
      "hood": 2995,
      "aign": 2996,
      "haps": 2997,
      "lied": 2998,
      "Ġgradu": 2999,
      "ĠDirect": 3000,
      "irth": 3001,
      "ĠGl": 3002,
      "ĠWhy": 3003,
      "Ġreach": 3004,
      "ĠAssoci": 3005,
      "Ġorganization": 3006,
      "Ġload": 3007,
      "Ġdru": 3008,
      "Ġdeveloped": 3009,
      "Ġapplications": 3010,
      "ties": 3011,
      "Ġsurpr": 3012,
      "mission": 3013,
      "now": 3014,
      "Ġhous": 3015,
      "Ġlimited": 3016,
      "Ġcommit": 3017,
      "Ġheat": 3018,
      "Ġplaying": 3019,
      "Ġobtain": 3020,
      "org": 3021,
      "ressed": 3022,
      "urb": 3023,
      "Ġtrip": 3024,
      "lim": 3025,
      "ole": 3026,
      "Ġaware": 3027,
      "ĠEnglish": 3028,
      "roll": 3029,
      "aves": 3030,
      "ĠBlack": 3031,
      "isf": 3032,
      "Ġconsult": 3033,
      "aged": 3034,
      "Ġplayers": 3035,
      "ilies": 3036,
      "Ġpositive": 3037,
      "Ġdep": 3038,
      "ĠWell": 3039,
      "Ġgoes": 3040,
      "Ġsuccessful": 3041,
      "Ġcirc": 3042,
      "Ġsold": 3043,
      "Ġadminist": 3044,
      "ĠJune": 3045,
      "Ġpath": 3046,
      "ĠSal": 3047,
      "Ġcomplex": 3048,
      "Ġcross": 3049,
      "Ġwel": 3050,
      "Ġgiving": 3051,
      "Ġpromot": 3052,
      "ĠGoogle": 3053,
      "vey": 3054,
      "Ġconduct": 3055,
      "ades": 3056,
      "ĠIndia": 3057,
      "Ġblock": 3058,
      "Ġpicture": 3059,
      "ude": 3060,
      "Ġindividuals": 3061,
      "ĠBrit": 3062,
      "wood": 3063,
      "Ġavoid": 3064,
      "Ġtraditional": 3065,
      "Ġtowards": 3066,
      "Ġhear": 3067,
      "Ġwar": 3068,
      "uses": 3069,
      "Ġconcept": 3070,
      "avy": 3071,
      "ker": 3072,
      "verse": 3073,
      "Ġemployees": 3074,
      "Ġglass": 3075,
      "ĠAfric": 3076,
      "nes": 3077,
      "Ġbecame": 3078,
      "Ġgroups": 3079,
      "OM": 3080,
      "uel": 3081,
      "amb": 3082,
      "Ġvehicle": 3083,
      "ĠWhe": 3084,
      "Ġlanguage": 3085,
      "Ġsometimes": 3086,
      "aly": 3087,
      "fl": 3088,
      "arant": 3089,
      "cies": 3090,
      "ĠRed": 3091,
      "Ġcourt": 3092,
      "Ġaltern": 3093,
      "Ġcopy": 3094,
      "Ġthinking": 3095,
      "Ġdecor": 3096,
      "Ġadvant": 3097,
      "Ġattempt": 3098,
      "ĠFeb": 3099,
      "Ġinterested": 3100,
      "Ġnature": 3101,
      "iles": 3102,
      "ĠTechn": 3103,
      "ought": 3104,
      "enty": 3105,
      "ĠGerm": 3106,
      "Ð°": 3107,
      "Ġconsidered": 3108,
      "Ġbusinesses": 3109,
      "ength": 3110,
      "Ġbegan": 3111,
      "Ġstarting": 3112,
      "Ġcarry": 3113,
      "su": 3114,
      "Ġ:": 3115,
      "igation": 3116,
      "Ġ--": 3117,
      "Ġrev": 3118,
      "apan": 3119,
      "ida": 3120,
      "ĠAug": 3121,
      "Ġlab": 3122,
      "Ġconsist": 3123,
      "ny": 3124,
      "Ġfirm": 3125,
      "pre": 3126,
      "Ġrelease": 3127,
      "Ġinstru": 3128,
      "ĠHar": 3129,
      "ĠDav": 3130,
      "ĠLondon": 3131,
      "rought": 3132,
      "ĠTV": 3133,
      "ĠBro": 3134,
      "ĠEach": 3135,
      "ĠService": 3136,
      "ulations": 3137,
      "enge": 3138,
      "Ġtemper": 3139,
      "ĠPresident": 3140,
      "artment": 3141,
      "ĠOut": 3142,
      "Ġanalysis": 3143,
      "Ġoffe": 3144,
      "Ġdry": 3145,
      "chan": 3146,
      "idents": 3147,
      "Ġexpected": 3148,
      "ĠJanuary": 3149,
      "Ġwal": 3150,
      "Ġfair": 3151,
      "Ġwish": 3152,
      "ET": 3153,
      "hest": 3154,
      "Ġpred": 3155,
      "ĠGener": 3156,
      "ira": 3157,
      "ama": 3158,
      "Ġprofession": 3159,
      "Ġtick": 3160,
      "Ġbudget": 3161,
      "mm": 3162,
      "ĠSan": 3163,
      "Ġassess": 3164,
      "ĠDesign": 3165,
      "Ġappropri": 3166,
      "Ġweeke": 3167,
      "aches": 3168,
      "ashing": 3169,
      "Ġgrowing": 3170,
      "Ġhor": 3171,
      "Ġwonderful": 3172,
      "Ġmat": 3173,
      "Ġprec": 3174,
      "Ġdiv": 3175,
      "hel": 3176,
      "Ġpropos": 3177,
      "Ġrights": 3178,
      "Ġdamage": 3179,
      "Ġcelebr": 3180,
      "ĠBus": 3181,
      "ara": 3182,
      "Ġhour": 3183,
      "Ġproced": 3184,
      "gy": 3185,
      "ĠOctober": 3186,
      "Ġentry": 3187,
      "Ġep": 3188,
      "isc": 3189,
      "ĠSund": 3190,
      "Ġmessage": 3191,
      "Ġmid": 3192,
      "Ġgold": 3193,
      "Ġhealthy": 3194,
      "Ġge": 3195,
      "Ġunderstanding": 3196,
      "ĠChina": 3197,
      "itute": 3198,
      "ption": 3199,
      "Ġpurpose": 3200,
      "reci": 3201,
      "iff": 3202,
      "Ġwrong": 3203,
      "ography": 3204,
      "ica": 3205,
      "Ġformer": 3206,
      "Ġplaces": 3207,
      "Ġposted": 3208,
      "Ġten": 3209,
      "Ġguide": 3210,
      "Ġexactly": 3211,
      "Ġconstruction": 3212,
      "dd": 3213,
      "ĠSer": 3214,
      "Ġpublished": 3215,
      "Ġsituation": 3216,
      "Ġinvestment": 3217,
      "ibly": 3218,
      "Ġanaly": 3219,
      "ĠFriday": 3220,
      "Ġdevices": 3221,
      "Ġfine": 3222,
      "ĠTrans": 3223,
      "ester": 3224,
      "Ġemerg": 3225,
      "ications": 3226,
      "ĠFree": 3227,
      "ĠRem": 3228,
      "rences": 3229,
      "Ġgar": 3230,
      "Ġopportunities": 3231,
      "Ġhit": 3232,
      "Ġactivity": 3233,
      "ĠMus": 3234,
      "band": 3235,
      "Ġstorage": 3236,
      "Ġbag": 3237,
      "Ġfab": 3238,
      "Ġregion": 3239,
      "ĠCommun": 3240,
      "Ġsubs": 3241,
      "Ġdifference": 3242,
      "Ġsleep": 3243,
      "rast": 3244,
      "Ġfamilies": 3245,
      "Ġphysical": 3246,
      "Ġjud": 3247,
      "Ġorganiz": 3248,
      "Ġprevious": 3249,
      "Ġmoving": 3250,
      "ĠGroup": 3251,
      "yond": 3252,
      "vant": 3253,
      "Ġdream": 3254,
      "Ġnote": 3255,
      "Ġcontain": 3256,
      "ĠCour": 3257,
      "Ġphoto": 3258,
      "aries": 3259,
      "Ġaward": 3260,
      "Ġpages": 3261,
      "Ġsubst": 3262,
      "ĠJuly": 3263,
      "Ġeffort": 3264,
      "Ġinternet": 3265,
      "Ġenh": 3266,
      "Ġreplace": 3267,
      "ek": 3268,
      "Ġcampaign": 3269,
      "Ġdefinitely": 3270,
      "ĠJes": 3271,
      "Ġgas": 3272,
      "uth": 3273,
      "Ġpattern": 3274,
      "Ġearn": 3275,
      "¿½": 3276,
      "Ġunit": 3277,
      "ï¿½": 3278,
      "zy": 3279,
      "Ġfight": 3280,
      "ĠChristmas": 3281,
      "Ġafford": 3282,
      "ĠPat": 3283,
      "Ġaim": 3284,
      "We": 3285,
      "Ġdark": 3286,
      "ses": 3287,
      "Ġuses": 3288,
      "oming": 3289,
      "ĠWar": 3290,
      "Ġreduce": 3291,
      "Ġeye": 3292,
      "Ġfrequ": 3293,
      "ĠCoun": 3294,
      "ĠProf": 3295,
      "ooth": 3296,
      "Ġeat": 3297,
      "Ġacqu": 3298,
      "Ġli": 3299,
      "ĠJapan": 3300,
      "antly": 3301,
      "Ġcateg": 3302,
      "Ġcomment": 3303,
      "Ġactive": 3304,
      "ruit": 3305,
      "ĠSeptember": 3306,
      "Ġgoals": 3307,
      "Ġbur": 3308,
      "ederal": 3309,
      "Ġpressure": 3310,
      "Ġfelt": 3311,
      "Ġresponse": 3312,
      "ĠServices": 3313,
      "EC": 3314,
      "Ġexerc": 3315,
      "Ġbenefit": 3316,
      "ares": 3317,
      "word": 3318,
      "Ġerr": 3319,
      "Ġsmart": 3320,
      "Ġconvers": 3321,
      "rows": 3322,
      "ville": 3323,
      "het": 3324,
      "ĠChar": 3325,
      "Ġbroad": 3326,
      "Ġdelivery": 3327,
      "Ġspot": 3328,
      "olute": 3329,
      "key": 3330,
      "Ġoffering": 3331,
      "ĠUp": 3332,
      "Ġinflu": 3333,
      "ĠAdd": 3334,
      "Ġhistor": 3335,
      "Ġcash": 3336,
      "ĠTod": 3337,
      "raft": 3338,
      "Ġcapt": 3339,
      "off": 3340,
      "Ġcamer": 3341,
      "ĠLa": 3342,
      "Ġbank": 3343,
      "Ġintegr": 3344,
      "Ġfarm": 3345,
      "ari": 3346,
      "itect": 3347,
      "ĠAN": 3348,
      "ING": 3349,
      "Ġslow": 3350,
      "porate": 3351,
      "ĠDepartment": 3352,
      "Ġneigh": 3353,
      "gram": 3354,
      "Ġcharge": 3355,
      "Ġmother": 3356,
      "Ġvac": 3357,
      "Ġsus": 3358,
      "Ġwait": 3359,
      "Ġshop": 3360,
      "Ġled": 3361,
      "Ġviol": 3362,
      "Ġpictures": 3363,
      "Ġsurface": 3364,
      "Ġeasier": 3365,
      "Ġlog": 3366,
      "Ġsatisf": 3367,
      "Ġexecut": 3368,
      "ĠKing": 3369,
      "Ġcontribut": 3370,
      "Ġaccom": 3371,
      "ST": 3372,
      "__": 3373,
      "Ġinitial": 3374,
      "Ġaspect": 3375,
      "Ġshown": 3376,
      "mat": 3377,
      "ĠOther": 3378,
      "Ġloved": 3379,
      "ĠIN": 3380,
      "Ġtele": 3381,
      "ĠClick": 3382,
      "Ġgets": 3383,
      "ĠAlthough": 3384,
      "Ġadult": 3385,
      "rench": 3386,
      "ka": 3387,
      "AP": 3388,
      "ĠSee": 3389,
      "ĠMich": 3390,
      "Ġadvice": 3391,
      "rial": 3392,
      "idential": 3393,
      "iling": 3394,
      "ĠFace": 3395,
      "Ġindepend": 3396,
      "Ġsurround": 3397,
      "orge": 3398,
      "EO": 3399,
      "Ġcompon": 3400,
      "Ġmaxim": 3401,
      "rel": 3402,
      "sequ": 3403,
      "Ġserve": 3404,
      "Ġoverall": 3405,
      "Ġpaid": 3406,
      "Ġstuff": 3407,
      "Ġreleased": 3408,
      "Ġrates": 3409,
      "Ġver": 3410,
      "Ġoffered": 3411,
      "ĠMod": 3412,
      "Ġpull": 3413,
      "cember": 3414,
      "Ġappreci": 3415,
      "Ġeffects": 3416,
      "ĠCompany": 3417,
      "Ġhotel": 3418,
      "cause": 3419,
      "Ġult": 3420,
      "Ġbaby": 3421,
      "ovember": 3422,
      "Ġregarding": 3423,
      "pa": 3424,
      "amed": 3425,
      "ĠRead": 3426,
      "pite": 3427,
      "Ġdemand": 3428,
      "Ġmark": 3429,
      "urt": 3430,
      "Ġgave": 3431,
      "Ġschools": 3432,
      "Ġhtt": 3433,
      "Ġadvert": 3434,
      "Ġguarant": 3435,
      "Ġuseful": 3436,
      "arily": 3437,
      "Ġspent": 3438,
      "Ġexisting": 3439,
      "ĠOver": 3440,
      "ams": 3441,
      "Ġoptim": 3442,
      "Ġroll": 3443,
      "Ġowners": 3444,
      "gar": 3445,
      "Ġbrought": 3446,
      "ĠGood": 3447,
      "rapy": 3448,
      "ĠInter": 3449,
      "Ġindic": 3450,
      "Ġmeasure": 3451,
      "ube": 3452,
      "Ġeval": 3453,
      "Ġstru": 3454,
      "Ġdy": 3455,
      "ĠSunday": 3456,
      "ĠSystem": 3457,
      "Ġtransfer": 3458,
      "Ġstructure": 3459,
      "Ġassociated": 3460,
      "place": 3461,
      "oph": 3462,
      "Ġwedding": 3463,
      "Ġdemon": 3464,
      "Ġexperienced": 3465,
      "Ġcertainly": 3466,
      "LL": 3467,
      "ĠCle": 3468,
      "ĠFlor": 3469,
      "Ġbasic": 3470,
      "Ġclub": 3471,
      "ĠEast": 3472,
      "ID": 3473,
      "Ġnut": 3474,
      "Ġprefer": 3475,
      "Ġdat": 3476,
      "Ġstories": 3477,
      "formation": 3478,
      "attle": 3479,
      "ĠLaw": 3480,
      "ashion": 3481,
      "ĠCalifornia": 3482,
      "Ġtruly": 3483,
      "sych": 3484,
      "Ġappoint": 3485,
      "ĠBel": 3486,
      "Ġaccur": 3487,
      "Ġculture": 3488,
      "oms": 3489,
      "Ġimmediately": 3490,
      "ipping": 3491,
      "change": 3492,
      "Ġbasis": 3493,
      "Ġdire": 3494,
      "ĠBusiness": 3495,
      "Ġoccur": 3496,
      "itary": 3497,
      "Ġpayment": 3498,
      "lies": 3499,
      "Ġtried": 3500,
      "lock": 3501,
      "Ġstress": 3502,
      "iced": 3503,
      "Ġwasn": 3504,
      "Ġresponsible": 3505,
      "right": 3506,
      "Th": 3507,
      "aks": 3508,
      "ĠJesus": 3509,
      "PS": 3510,
      "Ġheard": 3511,
      "Ġextremely": 3512,
      "Ġstage": 3513,
      "Ġcomfortable": 3514,
      "Ġaff": 3515,
      "ĠTHE": 3516,
      "etic": 3517,
      "ĠPri": 3518,
      "ĠNovember": 3519,
      "Ġparticularly": 3520,
      "Ġble": 3521,
      "ĠSatur": 3522,
      "ĠDecember": 3523,
      "lin": 3524,
      "Ġcollege": 3525,
      "Ġincreased": 3526,
      "ĠRuss": 3527,
      "house": 3528,
      "ibrary": 3529,
      "Ġter": 3530,
      "Ġeyes": 3531,
      "Ġweekend": 3532,
      "ĠBest": 3533,
      "Ġincreasing": 3534,
      "ened": 3535,
      "Ġbackground": 3536,
      "Ġfeeling": 3537,
      "ancy": 3538,
      "Ġlack": 3539,
      "bert": 3540,
      "unt": 3541,
      "Ġideal": 3542,
      "duc": 3543,
      "Ġlots": 3544,
      "Ġappropriate": 3545,
      "Ġdistribut": 3546,
      "Ġutil": 3547,
      "ospital": 3548,
      "Ġtransport": 3549,
      "Ġbehav": 3550,
      "Ġrepair": 3551,
      "porary": 3552,
      "set": 3553,
      "vest": 3554,
      "ertain": 3555,
      "Ġreve": 3556,
      "Ġpen": 3557,
      "ĠSpe": 3558,
      "Ġcompared": 3559,
      "istry": 3560,
      "Ġinterview": 3561,
      "Ġcompleted": 3562,
      "Ġadjust": 3563,
      "Ġdouble": 3564,
      "Ġpatient": 3565,
      "Ġrespond": 3566,
      "ronic": 3567,
      "ague": 3568,
      "ĠInternet": 3569,
      "Ġeconomic": 3570,
      "Ġimag": 3571,
      "Ġfurniture": 3572,
      "inner": 3573,
      "Ġdoll": 3574,
      "ĠAugust": 3575,
      "iety": 3576,
      "useum": 3577,
      "ĠIns": 3578,
      "Ġreli": 3579,
      "Ġextend": 3580,
      "mitted": 3581,
      "Ġmovie": 3582,
      "Ġsetting": 3583,
      "Ġdog": 3584,
      "Ġbeyond": 3585,
      "ĠRet": 3586,
      "Ġblue": 3587,
      "Ġbirth": 3588,
      "Ġhighest": 3589,
      "Ġnormal": 3590,
      "ĠBoard": 3591,
      "Ġattract": 3592,
      "Ġbottom": 3593,
      "ĠMake": 3594,
      "Ġproduce": 3595,
      "Ġselection": 3596,
      "Ġtask": 3597,
      "ĠEuropean": 3598,
      "Ġpet": 3599,
      "ruary": 3600,
      "des": 3601,
      "enior": 3602,
      "Ġsort": 3603,
      "nded": 3604,
      "ressive": 3605,
      "Ġtrade": 3606,
      "Ġbeginning": 3607,
      "Ġnotice": 3608,
      "ĠPost": 3609,
      "asc": 3610,
      "Ġlines": 3611,
      "tee": 3612,
      "Ġloan": 3613,
      "Ġmort": 3614,
      "Ġdress": 3615,
      "Ġhomes": 3616,
      "Ġdegree": 3617,
      "body": 3618,
      "erved": 3619,
      "Ġdisease": 3620,
      "ĠDel": 3621,
      "Ġpool": 3622,
      "zz": 3623,
      "Ġvot": 3624,
      "aint": 3625,
      "uk": 3626,
      "ustr": 3627,
      "ĠCollege": 3628,
      "Ġpowerful": 3629,
      "Ġreported": 3630,
      "ils": 3631,
      "Ġchanged": 3632,
      "ule": 3633,
      "icks": 3634,
      "Ġfeet": 3635,
      "Ġspirit": 3636,
      "Ġjoin": 3637,
      "Ġcove": 3638,
      "vis": 3639,
      "ĠOp": 3640,
      "Ġclin": 3641,
      "Ġtrain": 3642,
      "ĠCanada": 3643,
      "Ġpolitical": 3644,
      "Ġfiles": 3645,
      "ager": 3646,
      "ĠIS": 3647,
      "Ġhelping": 3648,
      "Ġmaster": 3649,
      "que": 3650,
      "ologies": 3651,
      "Ġrace": 3652,
      "Ġlargest": 3653,
      "Ġannual": 3654,
      "ancing": 3655,
      "Ġson": 3656,
      "Ġcab": 3657,
      "olf": 3658,
      "ĠCheck": 3659,
      "Ġfell": 3660,
      "Ġcollabor": 3661,
      "Ġsteps": 3662,
      "wide": 3663,
      "ĠIr": 3664,
      "Ġreflect": 3665,
      "Ġdead": 3666,
      "umn": 3667,
      "Ġweather": 3668,
      "istics": 3669,
      "hens": 3670,
      "tenance": 3671,
      "Ġframe": 3672,
      "Ġfinish": 3673,
      "Ġbatter": 3674,
      "ĠWindows": 3675,
      "ĠJe": 3676,
      "Ġlength": 3677,
      "Ġcreative": 3678,
      "ĠFacebook": 3679,
      "ĠSaturday": 3680,
      "ĠIT": 3681,
      "Ġband": 3682,
      "Ġefficient": 3683,
      "Ġsust": 3684,
      "Ġthous": 3685,
      "oly": 3686,
      "Ġgrand": 3687,
      "Ġplayed": 3688,
      "Ġmeaning": 3689,
      "Ġemot": 3690,
      "Ġchem": 3691,
      "Ġgreater": 3692,
      "Ġdro": 3693,
      "Ġprotection": 3694,
      "ĠToday": 3695,
      "imin": 3696,
      "Ġmethods": 3697,
      "ĠCr": 3698,
      "Ġsecure": 3699,
      "Ġcandid": 3700,
      "unte": 3701,
      "Ġstraight": 3702,
      "venue": 3703,
      "ĠFebruary": 3704,
      "aling": 3705,
      "ulf": 3706,
      "Ġmodels": 3707,
      "ded": 3708,
      "dom": 3709,
      "door": 3710,
      "Ġthanks": 3711,
      "Ġreasons": 3712,
      "Ġestate": 3713,
      "Ġelectric": 3714,
      "Ġgift": 3715,
      "ĠFind": 3716,
      "bon": 3717,
      "Ġchallenge": 3718,
      "ĠÂ£": 3719,
      "Ġhelped": 3720,
      "Ġnearly": 3721,
      "ulated": 3722,
      "Ġing": 3723,
      "St": 3724,
      "Ġpow": 3725,
      "Ġabsolute": 3726,
      "ned": 3727,
      "ĠBecause": 3728,
      "itter": 3729,
      "iques": 3730,
      "TM": 3731,
      "Ġallowed": 3732,
      "Ġscience": 3733,
      "Ġsharing": 3734,
      "Ġund": 3735,
      "ĠIndian": 3736,
      "Ġexhib": 3737,
      "ĠStreet": 3738,
      "acity": 3739,
      "ĠPort": 3740,
      "In": 3741,
      "ĠMarket": 3742,
      "Ġknew": 3743,
      "Ġwine": 3744,
      "Ġrelax": 3745,
      "Ġcards": 3746,
      "IG": 3747,
      "Ġmaybe": 3748,
      "anch": 3749,
      "icing": 3750,
      "ously": 3751,
      "Ġthank": 3752,
      "Ġbelie": 3753,
      "field": 3754,
      "ault": 3755,
      "undred": 3756,
      "Ġteams": 3757,
      "rol": 3758,
      "Ġplayer": 3759,
      "Ġjourney": 3760,
      "Ġlarger": 3761,
      "ĠProgram": 3762,
      "Ġvict": 3763,
      "Ġserved": 3764,
      "more": 3765,
      "ĠYes": 3766,
      "ĠEduc": 3767,
      "Ġwindow": 3768,
      "ĠDevelop": 3769,
      "ett": 3770,
      "ĠSpr": 3771,
      "Ġtechnical": 3772,
      "Ġscient": 3773,
      "Ġmechan": 3774,
      "Ġoccas": 3775,
      "Ġnumbers": 3776,
      "Ġletter": 3777,
      "Ġevidence": 3778,
      "Ġ+": 3779,
      "ĠGold": 3780,
      "Ġbedroom": 3781,
      "ĠSuper": 3782,
      "ĠAnt": 3783,
      "Ġord": 3784,
      "atever": 3785,
      "Ġfat": 3786,
      "Ġrules": 3787,
      "Ġcoffe": 3788,
      "Ġcraft": 3789,
      "Ġidentify": 3790,
      "iant": 3791,
      "Ġdefe": 3792,
      "Ġfant": 3793,
      "ĠSub": 3794,
      "care": 3795,
      "ĠUse": 3796,
      "iment": 3797,
      "ivil": 3798,
      "odes": 3799,
      "Ġrock": 3800,
      "Ġturned": 3801,
      "ĠAccording": 3802,
      "atically": 3803,
      "ĠAssociation": 3804,
      "Ġnation": 3805,
      "ĠAss": 3806,
      "Ġexperts": 3807,
      "Ġadvantage": 3808,
      "ipped": 3809,
      "Ġstrategy": 3810,
      "Ġhop": 3811,
      "Ġpaint": 3812,
      "ĠDist": 3813,
      "hol": 3814,
      "Ġestablished": 3815,
      "Ġprinc": 3816,
      "Ġsoci": 3817,
      "Ġinstitut": 3818,
      "Ġcho": 3819,
      "EM": 3820,
      "ooks": 3821,
      "ĠFlorida": 3822,
      "ĠPal": 3823,
      "Ġcru": 3824,
      "col": 3825,
      "Ġcapital": 3826,
      "anging": 3827,
      "Ġcold": 3828,
      "Ġremo": 3829,
      "Ġcovered": 3830,
      "atively": 3831,
      "icip": 3832,
      "Ġconven": 3833,
      "Ġrequires": 3834,
      "Ġfinally": 3835,
      "ĠDuring": 3836,
      "iny": 3837,
      "Ġstudies": 3838,
      "coming": 3839,
      "arc": 3840,
      "esome": 3841,
      "force": 3842,
      "ĠResearch": 3843,
      "Ġpieces": 3844,
      "ĠSom": 3845,
      "Ġcontinu": 3846,
      "sec": 3847,
      "Ġchurch": 3848,
      "Ġincome": 3849,
      "Ġtips": 3850,
      "Ġliter": 3851,
      "ĠDec": 3852,
      "Ġcommunication": 3853,
      "Ġmill": 3854,
      "ĠHave": 3855,
      "Ġupdate": 3856,
      "Ġconnection": 3857,
      "000000": 3858,
      "Ġreports": 3859,
      "Ġfill": 3860,
      "ĠiP": 3861,
      "oul": 3862,
      "Ġfather": 3863,
      "Ġlands": 3864,
      "inter": 3865,
      "Ġthreat": 3866,
      "Ġremain": 3867,
      "Ġalthough": 3868,
      "ugh": 3869,
      "Ġretail": 3870,
      "Ġstrength": 3871,
      "Ġwants": 3872,
      "ĠâĢ¢": 3873,
      "Ġannounced": 3874,
      "ĠHall": 3875,
      "AD": 3876,
      "Ġonto": 3877,
      "ĠPC": 3878,
      "Ġcancer": 3879,
      "agram": 3880,
      "Ġslight": 3881,
      "ĠAv": 3882,
      "Ġahead": 3883,
      "Ġspread": 3884,
      "estern": 3885,
      "iation": 3886,
      "Ġpartner": 3887,
      "ĠWashing": 3888,
      "Ġmanage": 3889,
      "ĠFound": 3890,
      "ĠMicro": 3891,
      "Ġwear": 3892,
      "Ġplus": 3893,
      "Ġsaying": 3894,
      "Ġflav": 3895,
      "Ġalone": 3896,
      "Ġchann": 3897,
      "Ġresist": 3898,
      "term": 3899,
      "ĠAnn": 3900,
      "reed": 3901,
      "Ġcry": 3902,
      "ĠDown": 3903,
      "Ġefforts": 3904,
      "Ġwild": 3905,
      "ĠAustralia": 3906,
      "Ġbutton": 3907,
      "Ġdetermine": 3908,
      "Ġcoffee": 3909,
      "ĠSupp": 3910,
      "ĠBook": 3911,
      "ĠWhite": 3912,
      "ĠMond": 3913,
      "Ġitem": 3914,
      "aughter": 3915,
      "order": 3916,
      "ĠMac": 3917,
      "ula": 3918,
      "ulate": 3919,
      "dy": 3920,
      "ĠSch": 3921,
      "Ġsty": 3922,
      "Ġsweet": 3923,
      "Ġmatt": 3924,
      "Ġtitle": 3925,
      "Ġsports": 3926,
      "ĠMor": 3927,
      "see": 3928,
      "aker": 3929,
      "ayer": 3930,
      "Ġstream": 3931,
      "ĠAnother": 3932,
      "Â®": 3933,
      "Ġacadem": 3934,
      "Ġwoman": 3935,
      "Ġtraffic": 3936,
      "Ġguid": 3937,
      "Ġcars": 3938,
      "Ġearlier": 3939,
      "Ġer": 3940,
      "ION": 3941,
      "ĠMa": 3942,
      "Ġtherefore": 3943,
      "Ġfinding": 3944,
      "Ġsolid": 3945,
      "Ġchallenges": 3946,
      "Ġserious": 3947,
      "roid": 3948,
      "ĠII": 3949,
      "Ġdrop": 3950,
      "Ġincor": 3951,
      "ĠWeb": 3952,
      "Ġgraph": 3953,
      "ĠLove": 3954,
      "Ġmis": 3955,
      "ĠVis": 3956,
      "Ġfollowed": 3957,
      "encies": 3958,
      "Ġreviews": 3959,
      "Ġflex": 3960,
      "Ġgenerally": 3961,
      "Ġexperiences": 3962,
      "Ġserver": 3963,
      "ĠJack": 3964,
      "Ġden": 3965,
      "Ġhundred": 3966,
      "ĠClub": 3967,
      "Ġtim": 3968,
      "nown": 3969,
      "ĠCouncil": 3970,
      "Ġexpand": 3971,
      "gage": 3972,
      "Ġfra": 3973,
      "Ġperhaps": 3974,
      "ribute": 3975,
      "ĠOh": 3976,
      "hips": 3977,
      "lands": 3978,
      "Ġorganizations": 3979,
      "Ġdemonstr": 3980,
      "ĠCur": 3981,
      "itude": 3982,
      "Ġstandards": 3983,
      "ĠOffice": 3984,
      "Ġmiddle": 3985,
      "Ġaren": 3986,
      "Ġincred": 3987,
      "ĠOb": 3988,
      "phone": 3989,
      "Ġstates": 3990,
      "Ġorigin": 3991,
      "rote": 3992,
      "Ġstrugg": 3993,
      "ĠSur": 3994,
      "Ġdedicated": 3995,
      "ios": 3996,
      "Ġcounter": 3997,
      "ĠFrench": 3998,
      "Ġmoved": 3999,
      "Ġwhose": 4000,
      "ris": 4001,
      "ĠWashington": 4002,
      "urning": 4003,
      "overed": 4004,
      "?\"": 4005,
      "usion": 4006,
      "Ġowner": 4007,
      "Ġtrou": 4008,
      "Ġassign": 4009,
      "Ġpark": 4010,
      "Ġ|": 4011,
      "ĠMem": 4012,
      "ij": 4013,
      "ĠPhot": 4014,
      "ĠCourt": 4015,
      "Ġlooked": 4016,
      "Ġcritical": 4017,
      "ament": 4018,
      "pective": 4019,
      "Ġbathroom": 4020,
      "la": 4021,
      "Ġvirt": 4022,
      "ĠMo": 4023,
      "standing": 4024,
      "iber": 4025,
      "well": 4026,
      "Ġmiles": 4027,
      "Ġvill": 4028,
      "unk": 4029,
      "Ġopening": 4030,
      "Ġdoub": 4031,
      "cape": 4032,
      "Ġstatement": 4033,
      "Ġprimary": 4034,
      "Ġtag": 4035,
      "ounds": 4036,
      "Ġbillion": 4037,
      "ĠLear": 4038,
      "ying": 4039,
      "Ġborn": 4040,
      "Ġshoot": 4041,
      "Ġprofessionals": 4042,
      "Ġcit": 4043,
      "Ġdelic": 4044,
      "Ġdriving": 4045,
      "lying": 4046,
      "Ġhandle": 4047,
      "Ġhimself": 4048,
      "ĠAC": 4049,
      "ĠHot": 4050,
      "Ġremove": 4051,
      "Ġsurv": 4052,
      "Ġteaching": 4053,
      "Ġharm": 4054,
      "Ġopin": 4055,
      "Ġmaintenance": 4056,
      "iency": 4057,
      "Ġmanufacturer": 4058,
      "ĠEs": 4059,
      "Ġmission": 4060,
      "Ġpoor": 4061,
      "Ġbalance": 4062,
      "tra": 4063,
      "ĠDem": 4064,
      "Ġcontains": 4065,
      "OL": 4066,
      "Ġpolice": 4067,
      "PA": 4068,
      "olate": 4069,
      "Ġparties": 4070,
      "Ġvalues": 4071,
      "ani": 4072,
      "Ġpopulation": 4073,
      "Ġschedule": 4074,
      "Ġactual": 4075,
      "Ġprepared": 4076,
      "Ġelements": 4077,
      "ĠWilliam": 4078,
      "Ġshape": 4079,
      "ĠWal": 4080,
      "ĠGreen": 4081,
      "Ġforce": 4082,
      "semb": 4083,
      "Ġcleaning": 4084,
      "ĠDavid": 4085,
      "Ġdeveloping": 4086,
      "Ġwinter": 4087,
      "Ġfear": 4088,
      "aled": 4089,
      "US": 4090,
      "ĠCong": 4091,
      "Ġrefer": 4092,
      "Ġshared": 4093,
      "ĠWhether": 4094,
      "Ġcolle": 4095,
      "Ġcamera": 4096,
      "EL": 4097,
      "ray": 4098,
      "Ġplaced": 4099,
      "Ġhus": 4100,
      "Ġdiscover": 4101,
      "It": 4102,
      "Ġcolors": 4103,
      "Ġviews": 4104,
      "ĠBritish": 4105,
      "Ġgarden": 4106,
      "Ġwelcome": 4107,
      "Ġsand": 4108,
      "ico": 4109,
      "Ġpros": 4110,
      "mar": 4111,
      "Ġproduced": 4112,
      "Ġlearned": 4113,
      "Ġtemperature": 4114,
      "Ġconv": 4115,
      "roud": 4116,
      "Ġroof": 4117,
      "Ð¸": 4118,
      "ĠWord": 4119,
      "Ġprogress": 4120,
      "Ġpassion": 4121,
      "ĠLoc": 4122,
      "ĠSk": 4123,
      "othing": 4124,
      "Ġgain": 4125,
      "Ġfinished": 4126,
      "Ġlisted": 4127,
      "ĠTex": 4128,
      "Ġfriendly": 4129,
      "'.": 4130,
      "Ġpeace": 4131,
      "gen": 4132,
      "Ġdiscount": 4133,
      "Ġcapacity": 4134,
      "Ġtesting": 4135,
      "Ġbuying": 4136,
      "Ġtransl": 4137,
      "Ġfactors": 4138,
      "icking": 4139,
      "Ġarchitect": 4140,
      "yn": 4141,
      "Ġrich": 4142,
      "Ġcentury": 4143,
      "ael": 4144,
      "ĠMal": 4145,
      "estival": 4146,
      "amin": 4147,
      "Ġadvanced": 4148,
      "Ġcommunities": 4149,
      "bum": 4150,
      "Ġtree": 4151,
      "Ġcheap": 4152,
      "Ġfaith": 4153,
      "Ġâ": 4154,
      "Ġsession": 4155,
      "ĠMonday": 4156,
      "Ġcompetition": 4157,
      "active": 4158,
      "Ġclasses": 4159,
      "Ġproperties": 4160,
      "Ġestablish": 4161,
      "Ġbreat": 4162,
      "ĠLast": 4163,
      "ĠRec": 4164,
      "ĠMet": 4165,
      "ĠClass": 4166,
      "Ġiniti": 4167,
      "lines": 4168,
      "ommod": 4169,
      "Ġheavy": 4170,
      "ĠInstitute": 4171,
      "Ġshopping": 4172,
      "mark": 4173,
      "rey": 4174,
      "ĠChurch": 4175,
      "Ġlimit": 4176,
      "Ġhaven": 4177,
      "Ġseeing": 4178,
      "Ġexplore": 4179,
      "ero": 4180,
      "orrow": 4181,
      "Ġbow": 4182,
      "Ġjobs": 4183,
      "Ġsmooth": 4184,
      "Ġpackage": 4185,
      "ĠPeople": 4186,
      "Ġfacilities": 4187,
      "Ġtalking": 4188,
      "Ġfan": 4189,
      "Ġexclus": 4190,
      "osure": 4191,
      "Ġfashion": 4192,
      "Ġvolunte": 4193,
      "acing": 4194,
      "Ġpresented": 4195,
      "Ġwife": 4196,
      "enses": 4197,
      "Ġmotor": 4198,
      "Ġban": 4199,
      "Ġvisual": 4200,
      "ĠTake": 4201,
      "ask": 4202,
      "ĠGeneral": 4203,
      "Ġhighlight": 4204,
      "Ġholiday": 4205,
      "cel": 4206,
      "ĠST": 4207,
      "iger": 4208,
      "osing": 4209,
      "Ġforms": 4210,
      "Ġcomments": 4211,
      "ĠSa": 4212,
      "Ġshot": 4213,
      "Ġtheme": 4214,
      "Ġcast": 4215,
      "Ġdiet": 4216,
      "Ġmetal": 4217,
      "ĠSing": 4218,
      "rief": 4219,
      "fast": 4220,
      "Ġnamed": 4221,
      "ĠYear": 4222,
      "ĠHy": 4223,
      "mp": 4224,
      "Ġvoice": 4225,
      "ups": 4226,
      "Ġcourses": 4227,
      "ĠTop": 4228,
      "apter": 4229,
      "MS": 4230,
      "rehens": 4231,
      "Ġrooms": 4232,
      "Ġwaste": 4233,
      "Ġkept": 4234,
      "Ġreference": 4235,
      "ĠCall": 4236,
      "Ġfish": 4237,
      "ĠThurs": 4238,
      "Ġmemory": 4239,
      "ĠManagement": 4240,
      "Ġadop": 4241,
      "Ġformat": 4242,
      "bu": 4243,
      "ady": 4244,
      "itors": 4245,
      "Ġcolour": 4246,
      "pm": 4247,
      "Ġoperation": 4248,
      "Ġaudience": 4249,
      "Ġpush": 4250,
      "Ġkeeping": 4251,
      "ixt": 4252,
      "ĠCare": 4253,
      "Ġvisitors": 4254,
      "ĠMary": 4255,
      "inese": 4256,
      "down": 4257,
      "Ġquarter": 4258,
      "Ġplants": 4259,
      "Ġsteel": 4260,
      "ught": 4261,
      "Ġspring": 4262,
      "Ġsmaller": 4263,
      "Ġstar": 4264,
      "âĢ²": 4265,
      "orial": 4266,
      "Ġdriver": 4267,
      "works": 4268,
      "Ġselected": 4269,
      "rees": 4270,
      "Ġevening": 4271,
      "vision": 4272,
      "Ġinstallation": 4273,
      "Ġsto": 4274,
      "za": 4275,
      "Ġremind": 4276,
      "Ġmer": 4277,
      "Ġadvance": 4278,
      "Ġfunds": 4279,
      "Ġbrain": 4280,
      "Ġeight": 4281,
      "eds": 4282,
      "enture": 4283,
      "nding": 4284,
      "Ġdrug": 4285,
      "Ġrepe": 4286,
      "Ġplenty": 4287,
      "Ġadding": 4288,
      "Ġrelig": 4289,
      "ĠPlan": 4290,
      "Ġarrange": 4291,
      "Ġingred": 4292,
      "Ġforget": 4293,
      "Ġfee": 4294,
      "Ġhelpful": 4295,
      "):": 4296,
      "Ġnames": 4297,
      "Ġdang": 4298,
      "Ġrelevant": 4299,
      "Ġvideos": 4300,
      "icine": 4301,
      "text": 4302,
      "ortunately": 4303,
      "Ġexercise": 4304,
      "ato": 4305,
      "Ġaccommod": 4306,
      "hop": 4307,
      "ĠWater": 4308,
      "Ġveget": 4309,
      "fit": 4310,
      "Ġcream": 4311,
      "Ġtechniques": 4312,
      "Ġpractices": 4313,
      "Ġmulti": 4314,
      "Ġfigure": 4315,
      "Ġfans": 4316,
      "ĠSl": 4317,
      "using": 4318,
      "soft": 4319,
      "Ġexpensive": 4320,
      "Ġbeg": 4321,
      "ĠUnder": 4322,
      "Ġguests": 4323,
      "Ġdecide": 4324,
      "Ġsector": 4325,
      "Ġbeauty": 4326,
      "Ġdirector": 4327,
      "ĠVol": 4328,
      "Ġdecisions": 4329,
      "Ġdesigns": 4330,
      "Ġcouldn": 4331,
      "Ġcentral": 4332,
      "Ġstation": 4333,
      "ĠLike": 4334,
      "ÑĤ": 4335,
      "Ġgall": 4336,
      "Ġoperations": 4337,
      "ĠLife": 4338,
      "azon": 4339,
      "Ġoperating": 4340,
      "Ġgone": 4341,
      "Ġsitu": 4342,
      "Ġhusband": 4343,
      "isl": 4344,
      "Ġessay": 4345,
      "Ġcoverage": 4346,
      "Ġconference": 4347,
      "Ġsustain": 4348,
      "IP": 4349,
      "Ġbrows": 4350,
      "icies": 4351,
      "Ġchanging": 4352,
      "Ġmentioned": 4353,
      "Ġsources": 4354,
      "Ġimpl": 4355,
      "Ġnumerous": 4356,
      "LE": 4357,
      "Ġotherwise": 4358,
      "top": 4359,
      "raw": 4360,
      "ĠWhere": 4361,
      "ĠTexas": 4362,
      "sey": 4363,
      "Ġice": 4364,
      "ĠSoc": 4365,
      "ishes": 4366,
      "Ġran": 4367,
      "Ġstatus": 4368,
      "Ġproud": 4369,
      "ĠBill": 4370,
      "ĠRock": 4371,
      "Ġseparate": 4372,
      "Ġagreement": 4373,
      "box": 4374,
      "isation": 4375,
      "actions": 4376,
      "ooper": 4377,
      "Ġflu": 4378,
      "Ġconnected": 4379,
      "Ġlinks": 4380,
      "ellow": 4381,
      "Ġwire": 4382,
      "ald": 4383,
      "ĠPaul": 4384,
      ".)": 4385,
      "UR": 4386,
      "Ġir": 4387,
      "Ġsuff": 4388,
      "rupt": 4389,
      "Ġmist": 4390,
      "Ġvision": 4391,
      "gery": 4392,
      "ĠMart": 4393,
      "Ġdocuments": 4394,
      "Ġscen": 4395,
      "ĠAnge": 4396,
      "ĠBank": 4397,
      "Ġlaunch": 4398,
      "Ġolder": 4399,
      "ĠThursday": 4400,
      "Ñģ": 4401,
      "Ġtend": 4402,
      "ĠEducation": 4403,
      "overy": 4404,
      "ĠCustom": 4405,
      "Ġdiam": 4406,
      "Ġmaximum": 4407,
      "Ġmedium": 4408,
      "Ġreality": 4409,
      "ado": 4410,
      "Ġseven": 4411,
      "Ġpassed": 4412,
      "ĠPower": 4413,
      "ĠJames": 4414,
      "Ġbiggest": 4415,
      "Ġapproxim": 4416,
      "Ġwaiting": 4417,
      "rem": 4418,
      "Ġluck": 4419,
      "Ġwat": 4420,
      "olic": 4421,
      "Ġmilitary": 4422,
      "Ġ>": 4423,
      "ĠWed": 4424,
      "Ġclassic": 4425,
      "Ġcells": 4426,
      "NA": 4427,
      "ĠTues": 4428,
      "Ġrare": 4429,
      "oma": 4430,
      "ception": 4431,
      "Ġstick": 4432,
      "Ġbright": 4433,
      "ĠBoth": 4434,
      "Ġtempl": 4435,
      "ship": 4436,
      "ĠWho": 4437,
      "Ġconcent": 4438,
      "Ġfees": 4439,
      "Ġleader": 4440,
      "Ġwrote": 4441,
      "Ġdump": 4442,
      "Ġresidents": 4443,
      "Ġbecomes": 4444,
      "ĠEv": 4445,
      "Ġobv": 4446,
      "ĠĠ": 4447,
      "ĠAP": 4448,
      "!!!": 4449,
      "ĠTwo": 4450,
      "Ġeconomy": 4451,
      "Ġpsych": 4452,
      "Ġcontinued": 4453,
      "Ġfem": 4454,
      "Ġcloud": 4455,
      "Ġalbum": 4456,
      "Ġmovement": 4457,
      "mal": 4458,
      "ĠIts": 4459,
      "ĠPR": 4460,
      "ĠArch": 4461,
      "Ġencourage": 4462,
      "Ġmicro": 4463,
      "ĠRoad": 4464,
      "bed": 4465,
      "Ġvalid": 4466,
      "Ġdiagn": 4467,
      "leg": 4468,
      "ago": 4469,
      "Ġinvestig": 4470,
      "Ġdisapp": 4471,
      "ĠNews": 4472,
      "Ġwebsites": 4473,
      "Ġdescribed": 4474,
      "Ġupgra": 4475,
      "icon": 4476,
      "abilities": 4477,
      "ĠMount": 4478,
      "Ġtruth": 4479,
      "Ġmortgage": 4480,
      "ĠBay": 4481,
      "rical": 4482,
      "omet": 4483,
      "Ġcompar": 4484,
      "ĠChinese": 4485,
      "Ġcharacters": 4486,
      "Ġcore": 4487,
      "ĠSum": 4488,
      "ĠDirector": 4489,
      "Ġbill": 4490,
      "Ġanti": 4491,
      "rael": 4492,
      "ĠRel": 4493,
      "Ġworkers": 4494,
      "Ġswitch": 4495,
      "ĠEngine": 4496,
      "ctors": 4497,
      "Ġlose": 4498,
      "Ġsched": 4499,
      "Ġmap": 4500,
      "Ġcombination": 4501,
      "pet": 4502,
      "Ġalternative": 4503,
      "Ġhttp": 4504,
      "free": 4505,
      "ĠPM": 4506,
      "Ġindependent": 4507,
      "Ġapplied": 4508,
      "ĠOpen": 4509,
      "ocr": 4510,
      "apers": 4511,
      "craft": 4512,
      "ĠPlay": 4513,
      "Ġfocused": 4514,
      "Ġscore": 4515,
      "Ġprovider": 4516,
      "Ġflat": 4517,
      "ĠChristian": 4518,
      "ĠMag": 4519,
      "Ġstreet": 4520,
      "Ġbecoming": 4521,
      "Ġrecords": 4522,
      "ented": 4523,
      "ĠBen": 4524,
      "Ġfamous": 4525,
      "Ġcalc": 4526,
      "Ġexcited": 4527,
      "ona": 4528,
      "Ġspect": 4529,
      "ocolate": 4530,
      "ĠCommission": 4531,
      "Ġforeign": 4532,
      "Ġclaims": 4533,
      "Ġpolicies": 4534,
      "Ġhappens": 4535,
      "Ġdatab": 4536,
      "ÂŃ": 4537,
      "Ġtaste": 4538,
      "Ġdirection": 4539,
      "ym": 4540,
      "ĠLake": 4541,
      "Ġconfig": 4542,
      "BC": 4543,
      "Ġinstalled": 4544,
      "cket": 4545,
      "ĠChild": 4546,
      "Ġcaused": 4547,
      "arge": 4548,
      "ervation": 4549,
      "Ġassistance": 4550,
      "ĠSil": 4551,
      "Ġestim": 4552,
      "Ġsea": 4553,
      "Ġunf": 4554,
      "inct": 4555,
      "Ġdur": 4556,
      "Ġrestaurant": 4557,
      "ĠSun": 4558,
      "Ġsociety": 4559,
      "TS": 4560,
      "ferences": 4561,
      "Ġpleas": 4562,
      "ĠEst": 4563,
      "Ġmajority": 4564,
      "mail": 4565,
      "net": 4566,
      "itar": 4567,
      "OW": 4568,
      "uable": 4569,
      "Ġtoward": 4570,
      "ĠElect": 4571,
      "ĠBuild": 4572,
      "Ġselling": 4573,
      "Ġdoctor": 4574,
      "Ġprocessing": 4575,
      "ĠHel": 4576,
      "nect": 4577,
      "Ġdisp": 4578,
      "Ġperformed": 4579,
      "ĠTy": 4580,
      "ĠRich": 4581,
      "Ġartist": 4582,
      "ĠTrump": 4583,
      "Ġcontinues": 4584,
      "ĠRiver": 4585,
      "Ġmeant": 4586,
      "ech": 4587,
      "pond": 4588,
      "Ġeating": 4589,
      "Ġsounds": 4590,
      "Ġminimum": 4591,
      "iled": 4592,
      "ĠQue": 4593,
      "ĠScience": 4594,
      "Ġmanager": 4595,
      "Ġrob": 4596,
      "Ġgovern": 4597,
      "Ġdinner": 4598,
      "amm": 4599,
      "sp": 4600,
      "asy": 4601,
      "ĠGlo": 4602,
      "Ġrat": 4603,
      "Ġcompl": 4604,
      "Ġrecip": 4605,
      "Ġprocesses": 4606,
      "ĠKeep": 4607,
      "Ġ=": 4608,
      "Ġfol": 4609,
      "ĠProfess": 4610,
      "Ġoutdoor": 4611,
      "Ġthousands": 4612,
      "Ġnovel": 4613,
      "ructure": 4614,
      "yer": 4615,
      "Ġspending": 4616,
      "Ġthus": 4617,
      "cean": 4618,
      "ads": 4619,
      "ĠBre": 4620,
      "Ġremains": 4621,
      "aming": 4622,
      "ĠUSA": 4623,
      "Ġsets": 4624,
      "lled": 4625,
      "Ġworry": 4626,
      "inger": 4627,
      "Ġwhatever": 4628,
      "Ġshowing": 4629,
      "www": 4630,
      "unning": 4631,
      "ĠApple": 4632,
      "Ġopened": 4633,
      "iliar": 4634,
      "ĠTuesday": 4635,
      "Ġsav": 4636,
      "Ġcomprehens": 4637,
      "Ġdecl": 4638,
      "Ġpair": 4639,
      "ĠOF": 4640,
      "IL": 4641,
      "Ġbought": 4642,
      "ĠID": 4643,
      "Ġgrant": 4644,
      "Ġfederal": 4645,
      "Ġlux": 4646,
      "Ġextensive": 4647,
      "Ġdepartment": 4648,
      "ĠTheir": 4649,
      "Ġawesome": 4650,
      "Ġfantastic": 4651,
      "Ġadapt": 4652,
      "Ġvan": 4653,
      "ÑĢ": 4654,
      "Ġrain": 4655,
      "Ġgeneration": 4656,
      "Ġexciting": 4657,
      "ĠPublic": 4658,
      "ĠFam": 4659,
      "Ġ@": 4660,
      "vere": 4661,
      "umin": 4662,
      "Ġminute": 4663,
      "Ġstarts": 4664,
      "Ġmarkets": 4665,
      "Ġhappened": 4666,
      "Ġcorner": 4667,
      "Ġbrother": 4668,
      "Ġcalls": 4669,
      "Ġachie": 4670,
      "Ġ?": 4671,
      "ĠBefore": 4672,
      "Ġbeach": 4673,
      "ĠCamp": 4674,
      "ĠFore": 4675,
      "Ġsnow": 4676,
      "tion": 4677,
      "Ġwww": 4678,
      "ĠLo": 4679,
      "icate": 4680,
      "aven": 4681,
      "Ġproperly": 4682,
      "bour": 4683,
      "Ġleaves": 4684,
      "ternal": 4685,
      "Ġdistance": 4686,
      "Ġsuitable": 4687,
      "Ġlock": 4688,
      "Ġcorporate": 4689,
      "Ġpresence": 4690,
      "ae": 4691,
      "Ġfold": 4692,
      "hi": 4693,
      "ĠTO": 4694,
      "ĠJew": 4695,
      "Ġartists": 4696,
      "Ġaffordable": 4697,
      "Ġsam": 4698,
      "ĠBig": 4699,
      "Ġbon": 4700,
      "Ġdetailed": 4701,
      "uled": 4702,
      "Ġteachers": 4703,
      "gment": 4704,
      "emporary": 4705,
      "Ġteacher": 4706,
      "Ġpanel": 4707,
      "Ġcabin": 4708,
      "ĠWood": 4709,
      "ordin": 4710,
      "miss": 4711,
      "Ġfabric": 4712,
      "Ġbattery": 4713,
      "Ġbul": 4714,
      "ĠJer": 4715,
      "Ġrecipe": 4716,
      "Ġrecommended": 4717,
      "Ġupdated": 4718,
      "iration": 4719,
      "IA": 4720,
      "ĠSam": 4721,
      "ĠMot": 4722,
      "ifts": 4723,
      "anta": 4724,
      "Ġagency": 4725,
      "Ġpal": 4726,
      "Ġprincip": 4727,
      "omb": 4728,
      "Ġrestrict": 4729,
      "Ġleaving": 4730,
      "Ġexpress": 4731,
      "Ġanimals": 4732,
      "Ġtopic": 4733,
      "Ġapart": 4734,
      "ĠWork": 4735,
      "ĠIsrael": 4736,
      "Ġfilled": 4737,
      "ĠNext": 4738,
      "Ġunits": 4739,
      "Ġleadership": 4740,
      "den": 4741,
      "sing": 4742,
      "icken": 4743,
      "Ġenvironmental": 4744,
      "Ġquant": 4745,
      "Ġdesk": 4746,
      "ĠAfrica": 4747,
      "Ġpractical": 4748,
      "Ġenjoyed": 4749,
      "Ġmanaged": 4750,
      "ĠLord": 4751,
      "CA": 4752,
      "IM": 4753,
      "ĠMiss": 4754,
      "Ġclosed": 4755,
      "ĠIsland": 4756,
      "Ġdaughter": 4757,
      "Ġbrings": 4758,
      "ĠMichael": 4759,
      "Ġslightly": 4760,
      "Ġerror": 4761,
      "iers": 4762,
      "Ġacademic": 4763,
      "bl": 4764,
      "Ġdram": 4765,
      "ipl": 4766,
      "Ġmanner": 4767,
      "pid": 4768,
      "omin": 4769,
      "Ġsenior": 4770,
      "night": 4771,
      "ĠBal": 4772,
      "Ġconcerns": 4773,
      "ĠPet": 4774,
      "Ġregistered": 4775,
      "Ġposts": 4776,
      "ĠEngland": 4777,
      "ĠDri": 4778,
      "Ġtypically": 4779,
      "ĠSpecial": 4780,
      "Ġguess": 4781,
      "Ġpresident": 4782,
      "Ġsch": 4783,
      "Ġdut": 4784,
      "Ġegg": 4785,
      "Ġwouldn": 4786,
      "Ġclearly": 4787,
      "ror": 4788,
      "Ġtransform": 4789,
      "ĠWednes": 4790,
      "Ġdebt": 4791,
      "Ġcomponents": 4792,
      "Ġdu": 4793,
      "ails": 4794,
      "Ġevalu": 4795,
      "!\"": 4796,
      "ander": 4797,
      "estic": 4798,
      "Ġchemical": 4799,
      "IV": 4800,
      "Ġabsolutely": 4801,
      "Ġaudio": 4802,
      "Ġcasino": 4803,
      "Ġship": 4804,
      "Ġearth": 4805,
      "ĠStar": 4806,
      "Ġvehicles": 4807,
      "Ġsouth": 4808,
      "Ġruns": 4809,
      "Ġrelationships": 4810,
      "ĠPay": 4811,
      "ĠHist": 4812,
      "Ġinjury": 4813,
      "illa": 4814,
      "Ġsecret": 4815,
      "ĠBack": 4816,
      "ĠStr": 4817,
      "ifying": 4818,
      "imb": 4819,
      "Ġunless": 4820,
      "ette": 4821,
      "Ġfacility": 4822,
      "ĠDevelopment": 4823,
      "Ġprepare": 4824,
      "Ġstrategies": 4825,
      "Ġspl": 4826,
      "Ġjoint": 4827,
      "Ġwilling": 4828,
      "outhern": 4829,
      "ĠProject": 4830,
      "essions": 4831,
      "ĠDet": 4832,
      "Ġshowed": 4833,
      "ĠDownload": 4834,
      "Ġapproximately": 4835,
      "Ġautomatically": 4836,
      "Ġdynam": 4837,
      "pan": 4838,
      "Ġscale": 4839,
      "Ġspecies": 4840,
      "Ġenhance": 4841,
      "ĠFoundation": 4842,
      "Ġbusy": 4843,
      "ĠRepublic": 4844,
      "Ġlighting": 4845,
      "fficient": 4846,
      "ĠHum": 4847,
      "Ġtow": 4848,
      "going": 4849,
      "Ġcategory": 4850,
      "Ch": 4851,
      "ĠMain": 4852,
      "Ġoutput": 4853,
      "icians": 4854,
      "Ġallowing": 4855,
      "Ġdistrict": 4856,
      "Ġeth": 4857,
      "Ġthoughts": 4858,
      "gal": 4859,
      "Ġfuel": 4860,
      "Ġargu": 4861,
      "Ġexpertise": 4862,
      "Ð½": 4863,
      "Ġdiscussion": 4864,
      "eed": 4865,
      "point": 4866,
      "Ġinput": 4867,
      "Ġcitiz": 4868,
      "Ġlabor": 4869,
      "Ġride": 4870,
      "Ġedge": 4871,
      "Ġder": 4872,
      "Ġimportance": 4873,
      "ĠMill": 4874,
      "ĠInformation": 4875,
      "ĠData": 4876,
      "Ġdoors": 4877,
      "Ġgoods": 4878,
      "ĠWall": 4879,
      "ĠAmazon": 4880,
      "Ġcities": 4881,
      "osen": 4882,
      "ĠThrough": 4883,
      "Ġstores": 4884,
      "Ġclimate": 4885,
      "Ġvolume": 4886,
      "arrant": 4887,
      "Ġhonest": 4888,
      "ĠJour": 4889,
      "ĠCommunity": 4890,
      "ston": 4891,
      "ĠAM": 4892,
      "Ġwatching": 4893,
      "Ġwalking": 4894,
      "ano": 4895,
      "Ġspecifically": 4896,
      "Ġanc": 4897,
      "ĠFire": 4898,
      "Ġcentre": 4899,
      "Ġsolar": 4900,
      "no": 4901,
      "osis": 4902,
      "DA": 4903,
      "Ġment": 4904,
      "Ġserving": 4905,
      "unction": 4906,
      "obile": 4907,
      "Ġcris": 4908,
      "ota": 4909,
      "Ġreliable": 4910,
      "ĠLight": 4911,
      "Ġplastic": 4912,
      "men": 4913,
      "ĠSociety": 4914,
      "ĠAS": 4915,
      "Ġsym": 4916,
      "Ġmal": 4917,
      "Ġknows": 4918,
      "Ġregister": 4919,
      "Ġphotograph": 4920,
      "Ġleads": 4921,
      "ĠContact": 4922,
      "Ġhospital": 4923,
      "Ġpreviously": 4924,
      "poses": 4925,
      "cles": 4926,
      "tered": 4927,
      "itness": 4928,
      "Ġshipping": 4929,
      "Ġfeedback": 4930,
      "Ġsquare": 4931,
      "Ġcatch": 4932,
      "Ġlocations": 4933,
      "Ġappears": 4934,
      "ĠThom": 4935,
      "ĠOnline": 4936,
      "Ġpredict": 4937,
      "ĠBet": 4938,
      "ĠMicrosoft": 4939,
      "Ġthick": 4940,
      "Ġconstruct": 4941,
      "Ġcultural": 4942,
      "Ġton": 4943,
      "ĠTime": 4944,
      "ĠSol": 4945,
      "ĠCert": 4946,
      "Ġillustr": 4947,
      "ĠMark": 4948,
      "',": 4949,
      "CC": 4950,
      "Ġtechnologies": 4951,
      "Ġactions": 4952,
      "Ġchoices": 4953,
      "Ġhousing": 4954,
      "ĠRob": 4955,
      "ĠWednesday": 4956,
      "othes": 4957,
      "ĠNote": 4958,
      "Ġkid": 4959,
      "ĠPhil": 4960,
      "Ġlaun": 4961,
      "Ġstone": 4962,
      "ĠSocial": 4963,
      "Ġpromote": 4964,
      "ivered": 4965,
      "ĠBlue": 4966,
      "Ġresponsibility": 4967,
      "ĠMad": 4968,
      "Ġtrees": 4969,
      "iders": 4970,
      "uries": 4971,
      "RA": 4972,
      "Ġhom": 4973,
      "Ġdepos": 4974,
      "nel": 4975,
      "Ġign": 4976,
      "Ġarm": 4977,
      "ĠReal": 4978,
      "Ġindustrial": 4979,
      "Ġlovely": 4980,
      "ĠEnter": 4981,
      "Ġinnovative": 4982,
      "ĠStart": 4983,
      "Ġdial": 4984,
      "Ġdining": 4985,
      "Ġsugar": 4986,
      "Ġappeal": 4987,
      "ĠExp": 4988,
      "outs": 4989,
      "Ġseek": 4990,
      "Ġdrink": 4991,
      "Ġaccompl": 4992,
      "ller": 4993,
      "Ġlunch": 4994,
      "Ġsem": 4995,
      "Ġlisten": 4996,
      "Ġinfo": 4997,
      "log": 4998,
      "Ġinternal": 4999,
      "ugg": 5000,
      "Ġmenu": 5001,
      "paper": 5002,
      "Ġcivil": 5003,
      "Ġbird": 5004,
      "aser": 5005,
      "ĠThose": 5006,
      "Ġinterior": 5007,
      "Ġaspects": 5008,
      "ĠBeach": 5009,
      "Ġingredients": 5010,
      "Ġpurposes": 5011,
      "Ġtrial": 5012,
      "ya": 5013,
      "Ġmotiv": 5014,
      "OP": 5015,
      "Ġreached": 5016,
      "Ġaccident": 5017,
      "Ġboy": 5018,
      "rian": 5019,
      "osition": 5020,
      "Ġcombined": 5021,
      "Ġdepending": 5022,
      "Ġfootball": 5023,
      "eria": 5024,
      "Ġfruit": 5025,
      "rab": 5026,
      "Ġexchange": 5027,
      "Ġinstance": 5028,
      "Ġchair": 5029,
      "Ġmode": 5030,
      "Ġattor": 5031,
      "Ġnegative": 5032,
      "ĠVe": 5033,
      "Ġmostly": 5034,
      "DF": 5035,
      "Ġrule": 5036,
      "Ġgirl": 5037,
      "BA": 5038,
      "gn": 5039,
      "Ġdied": 5040,
      "reek": 5041,
      "ĠCommit": 5042,
      "ĠCap": 5043,
      "ulty": 5044,
      "Ġbuildings": 5045,
      "Ġpremium": 5046,
      "Ġparking": 5047,
      "hab": 5048,
      "ampions": 5049,
      "ĠValley": 5050,
      "ĠTechnology": 5051,
      "known": 5052,
      "ĠMil": 5053,
      "Ġtrail": 5054,
      "ĠGovernment": 5055,
      "ection": 5056,
      "oles": 5057,
      "Ġwindows": 5058,
      "Ġnorth": 5059,
      "Ġneighbor": 5060,
      "ĠGrand": 5061,
      "uce": 5062,
      "ĠMel": 5063,
      "Ġcup": 5064,
      "Ġarticles": 5065,
      "Ġlaws": 5066,
      "ĠMusic": 5067,
      "Ġapproved": 5068,
      "ĠTor": 5069,
      "ĠRoy": 5070,
      "Ġvary": 5071,
      "Ġourselves": 5072,
      "Ġcart": 5073,
      "ĠExper": 5074,
      "Ġputting": 5075,
      "Ġexplain": 5076,
      "Ġring": 5077,
      "ĠCard": 5078,
      "Ġsample": 5079,
      "ĠCentral": 5080,
      "ipp": 5081,
      "Ġì": 5082,
      "Ġjoined": 5083,
      "jo": 5084,
      "rete": 5085,
      "prise": 5086,
      "Ġbehavior": 5087,
      "Ġquot": 5088,
      "Ġfunctions": 5089,
      "antic": 5090,
      "azine": 5091,
      "ario": 5092,
      "Ġtrad": 5093,
      "ĠÃ": 5094,
      "Ġcomprehensive": 5095,
      "rd": 5096,
      "water": 5097,
      "hent": 5098,
      "ĠMex": 5099,
      "Ġjournal": 5100,
      "Ġbrief": 5101,
      "Ġanywhere": 5102,
      "ĠOnly": 5103,
      "inding": 5104,
      "Ġterr": 5105,
      "olars": 5106,
      "Ġguys": 5107,
      "Ġrub": 5108,
      "Ġflowers": 5109,
      "Ġproceed": 5110,
      "Ġcontext": 5111,
      "Ġtickets": 5112,
      "Ġdetect": 5113,
      "Ġcircum": 5114,
      "Ġdelicious": 5115,
      "friend": 5116,
      "iance": 5117,
      "orthern": 5118,
      "oration": 5119,
      "Ġbrands": 5120,
      "Ġemergency": 5121,
      "oe": 5122,
      "arp": 5123,
      "ĠAND": 5124,
      "Ġsport": 5125,
      "itable": 5126,
      "Ġchocolate": 5127,
      "fin": 5128,
      "Ġshower": 5129,
      "Ġfamiliar": 5130,
      "Ġprocedure": 5131,
      "cont": 5132,
      "Ġpump": 5133,
      "Ġjump": 5134,
      "Ġhyd": 5135,
      "LC": 5136,
      "mes": 5137,
      "igence": 5138,
      "Ġradio": 5139,
      "rastructure": 5140,
      "ront": 5141,
      "Ġsurgery": 5142,
      "Ġtotally": 5143,
      "Ġmagn": 5144,
      "hetic": 5145,
      "Ġprofile": 5146,
      "cohol": 5147,
      "Ġelement": 5148,
      "Ġdelivered": 5149,
      "Ġguarantee": 5150,
      "ki": 5151,
      "mosp": 5152,
      "Ġinspired": 5153,
      "Ġdespite": 5154,
      "noon": 5155,
      "Ġnotes": 5156,
      "Ġpoll": 5157,
      "Ġadults": 5158,
      "Ġrental": 5159,
      "ĠDistrict": 5160,
      "add": 5161,
      "ĠLong": 5162,
      "Ġteach": 5163,
      "never": 5164,
      "Ġsequ": 5165,
      "Ġagent": 5166,
      "Ġauto": 5167,
      "Ġraised": 5168,
      "een": 5169,
      "Ġbond": 5170,
      "ĠSto": 5171,
      "Ġproviders": 5172,
      "ĠDoes": 5173,
      "Ġbike": 5174,
      "Ġdie": 5175,
      "ĠMatt": 5176,
      "Ġvaluable": 5177,
      "Ġcommitted": 5178,
      "Ġeducational": 5179,
      "Ġfavour": 5180,
      "Ġdatabase": 5181,
      "fol": 5182,
      "ĠBer": 5183,
      "Ġenable": 5184,
      "ĠLead": 5185,
      "equ": 5186,
      "hone": 5187,
      "ilit": 5188,
      "ĠConst": 5189,
      "gl": 5190,
      "ĠNOT": 5191,
      "Ã¡": 5192,
      "Ġended": 5193,
      "ga": 5194,
      "how": 5195,
      "Ġcrow": 5196,
      "ĠDa": 5197,
      "Ġupdates": 5198,
      "Ġuniversity": 5199,
      "ĠProv": 5200,
      "Ġreturned": 5201,
      "Ġmeasures": 5202,
      "ĠVir": 5203,
      "Ġdecre": 5204,
      "Ġlibrary": 5205,
      "ograp": 5206,
      "Ġresource": 5207,
      "ĠFood": 5208,
      "ĠMedical": 5209,
      "ĠTem": 5210,
      "agra": 5211,
      "ĠNor": 5212,
      "alls": 5213,
      "Ġadvertising": 5214,
      "ucle": 5215,
      "ĠTeam": 5216,
      "à¤": 5217,
      "Ġvisiting": 5218,
      "Ġlegisl": 5219,
      "ĠUsing": 5220,
      "Ġthread": 5221,
      "Ġseat": 5222,
      "Ġsurvey": 5223,
      "td": 5224,
      "ĠIde": 5225,
      "Ġpossibly": 5226,
      "Ġprot": 5227,
      "Ġaccounts": 5228,
      "ĠAndroid": 5229,
      "Ġcrus": 5230,
      "Ġemployee": 5231,
      "Ġsongs": 5232,
      "rs": 5233,
      "orough": 5234,
      "Ġasking": 5235,
      "iner": 5236,
      "ola": 5237,
      "Ġvote": 5238,
      "Ġreput": 5239,
      "Ġparticipants": 5240,
      "Ġmine": 5241,
      "Ġmental": 5242,
      "Ġoccup": 5243,
      "life": 5244,
      "ĠLou": 5245,
      "Ġfields": 5246,
      "ĠGermany": 5247,
      "eared": 5248,
      "aration": 5249,
      "Ġmanual": 5250,
      "ĠAddition": 5251,
      "ĠColor": 5252,
      "Ġlicense": 5253,
      "Ġgather": 5254,
      "Ġven": 5255,
      "Ġadministration": 5256,
      "Ġremoved": 5257,
      "Ġdish": 5258,
      "Ġrapid": 5259,
      "Ġeventually": 5260,
      "Ġflight": 5261,
      "Ġintroduced": 5262,
      "cap": 5263,
      "Ġtherapy": 5264,
      "rier": 5265,
      "Ġcompetitive": 5266,
      "Wh": 5267,
      "ĠProduct": 5268,
      "ĠStep": 5269,
      "reens": 5270,
      "ĠMer": 5271,
      "ĠLat": 5272,
      "Ġyouth": 5273,
      "Ġemp": 5274,
      "BS": 5275,
      "Ġnor": 5276,
      "ĠPress": 5277,
      "ifications": 5278,
      "Ġfaster": 5279,
      "adian": 5280,
      "Ġfunding": 5281,
      "Ġcovers": 5282,
      "fa": 5283,
      "Ġthrow": 5284,
      "Ġtun": 5285,
      "itz": 5286,
      "Ġseconds": 5287,
      "Ġinfluence": 5288,
      "Ġopinion": 5289,
      "CH": 5290,
      "Ġsizes": 5291,
      "Ġmeal": 5292,
      "Ġgun": 5293,
      "ĠMuseum": 5294,
      "ria": 5295,
      "ĠList": 5296,
      "Ġshap": 5297,
      "Ġscene": 5298,
      "ĠIndust": 5299,
      "ĠAcadem": 5300,
      "ĠTur": 5301,
      "Ġresearc": 5302,
      "Ġhar": 5303,
      "ĠMach": 5304,
      "Ġap": 5305,
      "respond": 5306,
      "Ġsignificantly": 5307,
      "ĠSet": 5308,
      "ĠMass": 5309,
      "Ġeffectively": 5310,
      "Ġguest": 5311,
      "ĠAtt": 5312,
      "Ġcoast": 5313,
      "ĠTwitter": 5314,
      "lor": 5315,
      "Ġapps": 5316,
      "Ġaid": 5317,
      "Ġowned": 5318,
      "Ġsupported": 5319,
      "Ġsympt": 5320,
      "oor": 5321,
      "Ġholding": 5322,
      "Ġanimal": 5323,
      "Ġtast": 5324,
      "Ġlights": 5325,
      "Ġsymb": 5326,
      "ician": 5327,
      "Ġbeat": 5328,
      "Ġlayer": 5329,
      "Ġlicens": 5330,
      "Ġoccasion": 5331,
      "SS": 5332,
      "ĠAlex": 5333,
      "ĠChic": 5334,
      "Ġelimin": 5335,
      "Ġappreciate": 5336,
      "ĠDiv": 5337,
      "akers": 5338,
      "Ġrestaurants": 5339,
      "Ġspo": 5340,
      "Ġpurchased": 5341,
      "estyle": 5342,
      "Ġconfidence": 5343,
      "ĠCentre": 5344,
      "ĠSen": 5345,
      "Ġnav": 5346,
      "Ġentertain": 5347,
      "Ġmonthly": 5348,
      "rics": 5349,
      "Ġpin": 5350,
      "ĠReview": 5351,
      "Ġmissing": 5352,
      "anish": 5353,
      "ĠHD": 5354,
      "ĠDi": 5355,
      "olly": 5356,
      "Ġexamples": 5357,
      "urban": 5358,
      "vention": 5359,
      "Ġtight": 5360,
      "Ġthr": 5361,
      "IR": 5362,
      "Ġburn": 5363,
      "Ġatmosp": 5364,
      "Ġdance": 5365,
      "Ġdiscovered": 5366,
      "Ġimproved": 5367,
      "elines": 5368,
      "ĠParty": 5369,
      "ĠTest": 5370,
      "Ġbutter": 5371,
      "met": 5372,
      "win": 5373,
      "ĠStand": 5374,
      "Ġfeels": 5375,
      "ĠTom": 5376,
      "pected": 5377,
      "ricult": 5378,
      "odies": 5379,
      "ĠYOU": 5380,
      "Ġinterests": 5381,
      "Ġsalt": 5382,
      "Ġsettings": 5383,
      "Ġmonit": 5384,
      "Ġcalling": 5385,
      "ĠGerman": 5386,
      "ENT": 5387,
      "Ġconsumers": 5388,
      "OD": 5389,
      "ĠFrance": 5390,
      "Ġorganic": 5391,
      "Ġdomain": 5392,
      "Ġshut": 5393,
      "Ġju": 5394,
      "Ġdeals": 5395,
      "ĠSecurity": 5396,
      "Ġsimpl": 5397,
      "Ġadministr": 5398,
      "rag": 5399,
      "Ġtests": 5400,
      "Ġsupplies": 5401,
      "ĠCommittee": 5402,
      "Ġcooking": 5403,
      "Ġwheel": 5404,
      "Ġannounce": 5405,
      "ĠJapanese": 5406,
      "Ðł": 5407,
      "Ġfle": 5408,
      "Ġweak": 5409,
      "Ġpresentation": 5410,
      "ĠOrgan": 5411,
      "Ġmessages": 5412,
      "ĠFollow": 5413,
      "ĠFurther": 5414,
      "Ġwinning": 5415,
      "ĠDig": 5416,
      "ĠUN": 5417,
      "Ġhire": 5418,
      "ums": 5419,
      "what": 5420,
      "Ġefficiency": 5421,
      "ef": 5422,
      "liance": 5423,
      "Ġlived": 5424,
      "Ġafternoon": 5425,
      "Ġreduced": 5426,
      "Ġwarrant": 5427,
      "ĠBas": 5428,
      "ĠRa": 5429,
      "Ġfactor": 5430,
      "Ġregularly": 5431,
      "Ð¾Ð": 5432,
      "Ġur": 5433,
      "rome": 5434,
      "ĠInvest": 5435,
      "ĠAdv": 5436,
      "Ġdesire": 5437,
      "Ġsignal": 5438,
      "Ġobl": 5439,
      "Ġbrown": 5440,
      "ini": 5441,
      "Ġcommand": 5442,
      "list": 5443,
      "Ġhouses": 5444,
      "xy": 5445,
      "zen": 5446,
      "ĠJournal": 5447,
      "ev": 5448,
      "ita": 5449,
      "ĠVict": 5450,
      "Ġscript": 5451,
      "Ġconsumer": 5452,
      "ĠCas": 5453,
      "Ġrise": 5454,
      "Ġsurrounding": 5455,
      "cious": 5456,
      "Ġassemb": 5457,
      "Ġdogs": 5458,
      "ĠShow": 5459,
      "oval": 5460,
      "Ġtail": 5461,
      "Ġplug": 5462,
      "rim": 5463,
      "ĠMaybe": 5464,
      "Ġdrivers": 5465,
      "Ġtruck": 5466,
      "Ġconvenient": 5467,
      "Ġsitting": 5468,
      "Ġdim": 5469,
      "oga": 5470,
      "Ġreaders": 5471,
      "roy": 5472,
      "Ġchosen": 5473,
      "Ġmanufacturing": 5474,
      "ĠSP": 5475,
      "Ġhearing": 5476,
      "Ġiron": 5477,
      "Ġremote": 5478,
      "Ġswim": 5479,
      "ĠLim": 5480,
      "Ġconflic": 5481,
      "Ġprocedures": 5482,
      "Ġsides": 5483,
      "Ġchart": 5484,
      "Ġpainting": 5485,
      "Ġbreakfast": 5486,
      "Ġraise": 5487,
      "Ġreplacement": 5488,
      "Ġsurf": 5489,
      "Ġclinical": 5490,
      "rate": 5491,
      "ĠOld": 5492,
      "Ġphil": 5493,
      "Ġrealize": 5494,
      "Ġbringing": 5495,
      "Ġconfirm": 5496,
      "Ġcutting": 5497,
      "ĠMaster": 5498,
      "ĠInstead": 5499,
      "0000000000000": 5500,
      "TA": 5501,
      "ĠTherefore": 5502,
      "Ġresolution": 5503,
      "Ġfailure": 5504,
      "Ġrevenue": 5505,
      "Ġamb": 5506,
      "Ġkinds": 5507,
      "Ġfixed": 5508,
      "Ġbound": 5509,
      "loc": 5510,
      "Ġboost": 5511,
      "Ġliqu": 5512,
      "Ġtasks": 5513,
      "ĠInte": 5514,
      "etime": 5515,
      "Ġdoubt": 5516,
      "ĠBi": 5517,
      "Ġperfectly": 5518,
      "OC": 5519,
      "Ġcomplic": 5520,
      "Ġgreatest": 5521,
      "Ġboat": 5522,
      "esterday": 5523,
      "pass": 5524,
      "ĠSecond": 5525,
      "Ġcommitment": 5526,
      "Ġpaying": 5527,
      "Ġreb": 5528,
      "Ġsupporting": 5529,
      "Ġsigned": 5530,
      "Ġperspective": 5531,
      "amic": 5532,
      "ĠPlus": 5533,
      "Ġtrading": 5534,
      "Ġconversation": 5535,
      "Ġisland": 5536,
      "Ġrot": 5537,
      "Ġcarefully": 5538,
      "ste": 5539,
      "ĠCD": 5540,
      "ensions": 5541,
      "Ġassum": 5542,
      "Ġinstructions": 5543,
      "Ġhistorical": 5544,
      "Ġtables": 5545,
      "aturing": 5546,
      "idden": 5547,
      "umber": 5548,
      "Ġseeking": 5549,
      "Ġcircumst": 5550,
      "ĠPan": 5551,
      "ĠArts": 5552,
      "Ġcorrespond": 5553,
      "rition": 5554,
      "Ġseemed": 5555,
      "ĠAward": 5556,
      "ĠHol": 5557,
      "apos": 5558,
      "Ġprotein": 5559,
      "Ġelectronic": 5560,
      "Ġben": 5561,
      "Ġgrade": 5562,
      "ĠFamily": 5563,
      "ĠHill": 5564,
      "Ġadvis": 5565,
      "while": 5566,
      "ĠPerson": 5567,
      "Ġcharges": 5568,
      "ĠView": 5569,
      "Ġinfrastructure": 5570,
      "iveness": 5571,
      "Ġintell": 5572,
      "Ġfoods": 5573,
      "Ġappearance": 5574,
      "Ġglad": 5575,
      "Ġrecovery": 5576,
      "Ġdecades": 5577,
      "prene": 5578,
      "ĠRad": 5579,
      "ibilities": 5580,
      "Ġdollars": 5581,
      "Ġapartment": 5582,
      "Ġintended": 5583,
      "ĠGeorge": 5584,
      "Ġparticipate": 5585,
      "Ġhun": 5586,
      "Ġregistration": 5587,
      "eper": 5588,
      "Ġpayments": 5589,
      "alog": 5590,
      "ĠFil": 5591,
      "phas": 5592,
      "Ġpatterns": 5593,
      "kin": 5594,
      "with": 5595,
      "eries": 5596,
      "Ġunc": 5597,
      "Ġcreation": 5598,
      "Ġwhom": 5599,
      "Ġepis": 5600,
      "Ġaccurate": 5601,
      "Ġproposed": 5602,
      "ĠSometimes": 5603,
      "Ġyes": 5604,
      "ĠCat": 5605,
      "aught": 5606,
      "rain": 5607,
      "ĠAfrican": 5608,
      "ĠHi": 5609,
      "Ġcauses": 5610,
      "IF": 5611,
      "ĠItal": 5612,
      "ĠNetwork": 5613,
      "ownt": 5614,
      "ĠGen": 5615,
      "Ġsole": 5616,
      "ĠProte": 5617,
      "ĠRobert": 5618,
      "orter": 5619,
      "ĠAtl": 5620,
      "Ġunivers": 5621,
      "bre": 5622,
      "ially": 5623,
      "Ġquiet": 5624,
      "Ġconsidering": 5625,
      "Ġforg": 5626,
      "ĠOR": 5627,
      "Ġcable": 5628,
      "ĠAccess": 5629,
      "eless": 5630,
      "ĠRE": 5631,
      "Ġsaving": 5632,
      "ensity": 5633,
      "Ġhousehold": 5634,
      "iest": 5635,
      "Ġnurs": 5636,
      "Ġknowing": 5637,
      "ua": 5638,
      "burg": 5639,
      "isco": 5640,
      "ĠExt": 5641,
      "Ġagencies": 5642,
      "ales": 5643,
      "ĠWestern": 5644,
      "ĠWel": 5645,
      "ĠFund": 5646,
      "ĠKore": 5647,
      "Ġspaces": 5648,
      "Ġsubstant": 5649,
      "Ġhundreds": 5650,
      "Ġlaunched": 5651,
      "Ġaccepted": 5652,
      "Ġorders": 5653,
      "Ġtea": 5654,
      "Ġpure": 5655,
      "Ġdetermined": 5656,
      "reprene": 5657,
      "ĠBrown": 5658,
      "ĠON": 5659,
      "Ġpoly": 5660,
      "Ġgirls": 5661,
      "ulous": 5662,
      "ĠHand": 5663,
      "ĠHam": 5664,
      "ificate": 5665,
      "ius": 5666,
      "ĠSqu": 5667,
      "lla": 5668,
      "ĠSand": 5669,
      "Ġstret": 5670,
      "Ġregul": 5671,
      "Ġtough": 5672,
      "ĠBur": 5673,
      "Ġdegrees": 5674,
      "Ġec": 5675,
      "ĠIP": 5676,
      "Ġacid": 5677,
      "ĠHope": 5678,
      "Ġnoted": 5679,
      "Ġupload": 5680,
      "Ġcoup": 5681,
      "ĠCarol": 5682,
      "Ġroute": 5683,
      "ĠGlobal": 5684,
      "Ġteeth": 5685,
      "Ġagg": 5686,
      "Ġincl": 5687,
      "cuit": 5688,
      "ala": 5689,
      "This": 5690,
      "ĠCP": 5691,
      "lets": 5692,
      "Ġleather": 5693,
      "Ġsubmit": 5694,
      "vin": 5695,
      "irms": 5696,
      "ĠTre": 5697,
      "imately": 5698,
      "Ġwid": 5699,
      "Ġassets": 5700,
      "ĠUnion": 5701,
      "Ġbelong": 5702,
      "which": 5703,
      "hand": 5704,
      "fection": 5705,
      "Ġremaining": 5706,
      "ĠHaving": 5707,
      "dered": 5708,
      "UT": 5709,
      "Ġconsequ": 5710,
      "Ġdepart": 5711,
      "Ġwriter": 5712,
      "Ġcompr": 5713,
      "Ġpray": 5714,
      "edy": 5715,
      "Ġdefined": 5716,
      "berg": 5717,
      "Ġanswers": 5718,
      "Ġrenew": 5719,
      "Ġminor": 5720,
      "Ġofficials": 5721,
      "erves": 5722,
      "ĠWhich": 5723,
      "Ġhealthcare": 5724,
      "Ġaffected": 5725,
      "Ġsessions": 5726,
      "athe": 5727,
      "Ġdating": 5728,
      "Ġincredible": 5729,
      "Ġmachines": 5730,
      "SA": 5731,
      "ta": 5732,
      "ĠTour": 5733,
      "ĠLtd": 5734,
      "Ġsearching": 5735,
      "ĠCA": 5736,
      "Ġneck": 5737,
      "Ġsuccessfully": 5738,
      "ĠFinally": 5739,
      "Ġbegins": 5740,
      "ĠWomen": 5741,
      "Ġuns": 5742,
      "Ġfilter": 5743,
      "Ġgrown": 5744,
      "Ġstated": 5745,
      "Ġcarried": 5746,
      "ĠScott": 5747,
      "Ġdistribution": 5748,
      "Ĥ¬": 5749,
      "Ġresidential": 5750,
      "Ġconstantly": 5751,
      "Ġtrend": 5752,
      "LA": 5753,
      "rum": 5754,
      "Ġking": 5755,
      "Ġkeeps": 5756,
      "Ġsigns": 5757,
      "Ġdelight": 5758,
      "Ġvit": 5759,
      "ĠChicago": 5760,
      "Ġbigger": 5761,
      "Ġvictim": 5762,
      "iors": 5763,
      "Ġtopics": 5764,
      "yal": 5765,
      "Ġfulf": 5766,
      "Ġspr": 5767,
      "Ġfreed": 5768,
      "oose": 5769,
      "Ġmini": 5770,
      "ighter": 5771,
      "Ġshares": 5772,
      "Ġmail": 5773,
      "Ġawareness": 5774,
      "Ġfemale": 5775,
      "Ġexcess": 5776,
      "Ġguy": 5777,
      "Ġconcerned": 5778,
      "ĠVery": 5779,
      "anged": 5780,
      "ĠPeter": 5781,
      "Ġissued": 5782,
      "Ġintegrated": 5783,
      "Ġath": 5784,
      "Ġrough": 5785,
      "Ġtreated": 5786,
      "ĠConference": 5787,
      "Ġprivacy": 5788,
      "ĠEqu": 5789,
      "Ġtwice": 5790,
      "ĠPack": 5791,
      "Ġneighborhood": 5792,
      "ĠDou": 5793,
      "ĠDid": 5794,
      "Ġfrequently": 5795,
      "inations": 5796,
      "Ġchannel": 5797,
      "hus": 5798,
      "uality": 5799,
      "Ġreasonable": 5800,
      "Ġarrived": 5801,
      "Ġsac": 5802,
      "ĠTable": 5803,
      "ĠEarth": 5804,
      "Ġengage": 5805,
      "related": 5806,
      "Ġappointment": 5807,
      "Ġmeat": 5808,
      "Ġtut": 5809,
      "ĠStudents": 5810,
      "Ġmouth": 5811,
      "Ġjoy": 5812,
      "Ġtrained": 5813,
      "appy": 5814,
      "ĠVirgin": 5815,
      "atre": 5816,
      "Ġportion": 5817,
      "Ġsymptoms": 5818,
      "Ġsupports": 5819,
      "Ġassessment": 5820,
      "ds": 5821,
      "Ġexternal": 5822,
      "ĠLos": 5823,
      "ĠNY": 5824,
      "ĠNov": 5825,
      "Ġengineering": 5826,
      "Ġmilk": 5827,
      "Ġstanding": 5828,
      "Ġscientific": 5829,
      "Ġidentified": 5830,
      "Ġinnovation": 5831,
      "luding": 5832,
      "weight": 5833,
      "ĠSoft": 5834,
      "iat": 5835,
      "ĠEconom": 5836,
      "poration": 5837,
      "Ġmountain": 5838,
      "ĠCH": 5839,
      "ĠNE": 5840,
      "ĠManager": 5841,
      "Ġmut": 5842,
      "otic": 5843,
      "Ġauthent": 5844,
      "ÃŃ": 5845,
      "Ġfo": 5846,
      "ĠAsia": 5847,
      "ĠTri": 5848,
      "ĠOper": 5849,
      "Ġkill": 5850,
      "Ġpharm": 5851,
      "inder": 5852,
      "ĠGall": 5853,
      "Ġphase": 5854,
      "Ġreceiving": 5855,
      "ĠiPhone": 5856,
      "pes": 5857,
      "Ġgro": 5858,
      "cher": 5859,
      "Ġfourth": 5860,
      "orry": 5861,
      "ĠSmith": 5862,
      "Ġlabel": 5863,
      "Ġbrowser": 5864,
      "Ġbattle": 5865,
      "Ġhorse": 5866,
      "Ġplanned": 5867,
      "Ġequal": 5868,
      "Ġdumpster": 5869,
      "Ġalcohol": 5870,
      "ĠCre": 5871,
      "Ġresol": 5872,
      "Ġemphas": 5873,
      "Ġaccessible": 5874,
      "Ġnegot": 5875,
      "Ġpu": 5876,
      "ĠOffic": 5877,
      "Ġcoach": 5878,
      "Ġregional": 5879,
      "Ġsheet": 5880,
      "Ġprompt": 5881,
      "Ġplays": 5882,
      "Ġlifestyle": 5883,
      "Ġconver": 5884,
      "Ġdiamond": 5885,
      "Ġcitizens": 5886,
      "Ġentr": 5887,
      "Ġcandidates": 5888,
      "Ġsymbol": 5889,
      "ĠTown": 5890,
      "Ġinteg": 5891,
      "Ġped": 5892,
      "Ġcontemporary": 5893,
      "Ġflag": 5894,
      "hors": 5895,
      "ĠHead": 5896,
      "Ġrail": 5897,
      "cling": 5898,
      "road": 5899,
      "Ġfort": 5900,
      "Ġrelatively": 5901,
      "Ġwalls": 5902,
      "ĠLearn": 5903,
      "Ġfly": 5904,
      "Ġforest": 5905,
      "Ġemotional": 5906,
      "ĠCode": 5907,
      "Ġrand": 5908,
      "Ġcrew": 5909,
      "Ġinvestors": 5910,
      "Ġholds": 5911,
      "Ġhosting": 5912,
      ");": 5913,
      "SC": 5914,
      "Ġ^": 5915,
      "ĠTry": 5916,
      "abled": 5917,
      "Ġmarried": 5918,
      "icial": 5919,
      "Ġchicken": 5920,
      "ĠAbout": 5921,
      "Ġcycle": 5922,
      "igan": 5923,
      "Ġformed": 5924,
      "Ġexpectations": 5925,
      "van": 5926,
      "Ġupper": 5927,
      "Ġbroken": 5928,
      "Ġmatters": 5929,
      "stone": 5930,
      "Ġbless": 5931,
      "ĠCongress": 5932,
      "oses": 5933,
      "Ġelig": 5934,
      "Ġchallenging": 5935,
      "asp": 5936,
      "Ġyellow": 5937,
      "Ġcampus": 5938,
      "ĠVictor": 5939,
      "ĠParis": 5940,
      "Ġstudio": 5941,
      "ĠRussian": 5942,
      "Ġbread": 5943,
      "Ġkick": 5944,
      "aste": 5945,
      "ait": 5946,
      "ĠTim": 5947,
      "Ġcharged": 5948,
      "Ġhardware": 5949,
      "ĠGal": 5950,
      "Ġperman": 5951,
      "ban": 5952,
      "ĠEU": 5953,
      "ava": 5954,
      "ĠItalian": 5955,
      "Ġforces": 5956,
      "ounder": 5957,
      "erts": 5958,
      "Ġphotography": 5959,
      "mond": 5960,
      "ĠHaw": 5961,
      "ĠDen": 5962,
      "Ġtaught": 5963,
      "Ġpositions": 5964,
      "ĠFranc": 5965,
      "Ġinspiration": 5966,
      "Ġexclusive": 5967,
      "Ġserves": 5968,
      "ĠCanadian": 5969,
      "ĠWin": 5970,
      "Ġimprovement": 5971,
      "Ġtub": 5972,
      "ĠAud": 5973,
      "Ġwealth": 5974,
      "ĠBud": 5975,
      "Ġlit": 5976,
      "Ġskill": 5977,
      "look": 5978,
      "Ġfacilit": 5979,
      "Ġconducted": 5980,
      "Ġticket": 5981,
      "ixture": 5982,
      "Ġcro": 5983,
      "istan": 5984,
      "Ġinformed": 5985,
      "00000000000000": 5986,
      "ias": 5987,
      "ĠCEO": 5988,
      "Ġstopped": 5989,
      "ĠSign": 5990,
      "ĠCy": 5991,
      "osite": 5992,
      "Ġupcoming": 5993,
      "Ġpassword": 5994,
      "working": 5995,
      "ĠLu": 5996,
      "endar": 5997,
      "Ġthorough": 5998,
      "ĠUl": 5999,
      "intage": 6000,
      "Ġrank": 6001,
      "uts": 6002,
      "ĠAmericans": 6003,
      "ĠHotel": 6004,
      "othe": 6005,
      "Ġchain": 6006,
      "Ġcertified": 6007,
      "Ġparam": 6008,
      "Ġcooper": 6009,
      "Ġease": 6010,
      "Ġoutstanding": 6011,
      "Ġloans": 6012,
      "riage": 6013,
      "pret": 6014,
      "comes": 6015,
      "Ġcop": 6016,
      "Ġimpressive": 6017,
      "isher": 6018,
      "Ġplate": 6019,
      "Ġoperate": 6020,
      "Ġvirtual": 6021,
      "uration": 6022,
      "oop": 6023,
      "Ġdiverse": 6024,
      "ĠTrust": 6025,
      "ĠApplic": 6026,
      "Ġgear": 6027,
      "Ġusual": 6028,
      "Ġemployment": 6029,
      "Ġmoments": 6030,
      "ĠRussia": 6031,
      "Ġscheduled": 6032,
      "Ġrandom": 6033,
      "Ġsevere": 6034,
      "Ġdescription": 6035,
      "Ġdistinct": 6036,
      "ossible": 6037,
      "Ġvir": 6038,
      "Ġdrugs": 6039,
      "You": 6040,
      "ĠMedia": 6041,
      "Ġtiss": 6042,
      "ĠLab": 6043,
      "Ġworldwide": 6044,
      "Ġmir": 6045,
      "Ġmembership": 6046,
      "Ġsilver": 6047,
      "Ġbreath": 6048,
      "sm": 6049,
      "ora": 6050,
      "ilst": 6051,
      "ĠJud": 6052,
      "Ġlandscape": 6053,
      "Ġsituations": 6054,
      "ĠHuman": 6055,
      "Ġvital": 6056,
      "otton": 6057,
      "anda": 6058,
      "Ġroutine": 6059,
      "Ġelectrical": 6060,
      "Ġinvolve": 6061,
      "uclear": 6062,
      "igr": 6063,
      "Ġmonitoring": 6064,
      "Â°": 6065,
      "Ġheight": 6066,
      "Ġcheese": 6067,
      "gging": 6068,
      "Ġtechnique": 6069,
      "Ġbask": 6070,
      "Ġcircumstances": 6071,
      "Ġtypical": 6072,
      "Ġeveryday": 6073,
      "Ġclassroom": 6074,
      "Ġcloser": 6075,
      "ĠDemocr": 6076,
      "ĠAustralian": 6077,
      "Ġagreed": 6078,
      "Ġchoosing": 6079,
      "Ġqualified": 6080,
      "ĠLog": 6081,
      "Ġchat": 6082,
      "Ġinvent": 6083,
      "Ġluxury": 6084,
      "ĠPlace": 6085,
      "Ġinstitutions": 6086,
      "Ġstyles": 6087,
      "Ġtrouble": 6088,
      "Ġtheory": 6089,
      "Ġmassive": 6090,
      "ĠWil": 6091,
      "arsh": 6092,
      "ĠIll": 6093,
      "Ġnine": 6094,
      "ĠMike": 6095,
      "Ġages": 6096,
      "Ġsyn": 6097,
      "Ġretire": 6098,
      "Ġtemplate": 6099,
      "Ġresearchers": 6100,
      "Ġang": 6101,
      "Ġregulations": 6102,
      "Ġbelief": 6103,
      "Ġextract": 6104,
      "Ġmel": 6105,
      "ĠSU": 6106,
      "Ġrow": 6107,
      "Ġagents": 6108,
      "Ġvacation": 6109,
      "Ġpublish": 6110,
      "ĠSpring": 6111,
      "Ġsavings": 6112,
      "spe": 6113,
      "vi": 6114,
      "Ġshoes": 6115,
      "oes": 6116,
      "Ġappeared": 6117,
      "Ġquote": 6118,
      "ĠEnjoy": 6119,
      "ĠEr": 6120,
      "Ġkit": 6121,
      "ĠUnf": 6122,
      "Ġsupposed": 6123,
      "Ġends": 6124,
      "Ġstre": 6125,
      "Ġinstruct": 6126,
      "Ġpartnership": 6127,
      "Ġarts": 6128,
      "aked": 6129,
      "Ġidentity": 6130,
      "Ġextended": 6131,
      "Ġsan": 6132,
      "Ġalle": 6133,
      "Ġfeatured": 6134,
      "rid": 6135,
      "ĠMont": 6136,
      "Ġsauce": 6137,
      "Ġprotected": 6138,
      "Ġpun": 6139,
      "Ġdeploy": 6140,
      "ĠLooking": 6141,
      "Ġpersonally": 6142,
      "ĠMA": 6143,
      "aren": 6144,
      "ĠDisc": 6145,
      "irmed": 6146,
      "Ġprogramme": 6147,
      "Ġriver": 6148,
      "Ġaffili": 6149,
      "Ġbowl": 6150,
      "Ġstands": 6151,
      "Ġengagement": 6152,
      "ĠIre": 6153,
      "ĠFrank": 6154,
      "Ġbonus": 6155,
      "made": 6156,
      "Ġther": 6157,
      "Ġfif": 6158,
      "asts": 6159,
      "Ġhappening": 6160,
      "Ġphilos": 6161,
      "west": 6162,
      "ints": 6163,
      "Ġmovies": 6164,
      "Ġexecutive": 6165,
      "Ġspeaking": 6166,
      "Ġatmosphere": 6167,
      "Ġstunning": 6168,
      "Ġmainly": 6169,
      "ĠIC": 6170,
      "acks": 6171,
      "Ġdepth": 6172,
      "Ġfacing": 6173,
      "Ġrisks": 6174,
      "Ġnearby": 6175,
      "Ġfailed": 6176,
      "ĠPin": 6177,
      "Ġcapable": 6178,
      "Ġrid": 6179,
      "Ġloves": 6180,
      "Ġeditor": 6181,
      "ĠBuy": 6182,
      "orders": 6183,
      "Ġcake": 6184,
      "ĠId": 6185,
      "ords": 6186,
      "Ġentirely": 6187,
      "ĠFull": 6188,
      "Ġvs": 6189,
      "Ġclosely": 6190,
      "Ġflexible": 6191,
      "umes": 6192,
      "Ġinches": 6193,
      "ss": 6194,
      "osh": 6195,
      "Ġcarbon": 6196,
      "Ġvend": 6197,
      "vate": 6198,
      "etary": 6199,
      "Ġinterface": 6200,
      "ĠControl": 6201,
      "Ġmissed": 6202,
      "Ġmonitor": 6203,
      "Ġturns": 6204,
      "Ġsister": 6205,
      "Ġcaught": 6206,
      "Ġprop": 6207,
      "iminal": 6208,
      "ĠPub": 6209,
      "Ġdefault": 6210,
      "Ġfitness": 6211,
      "ĠGarden": 6212,
      "ĠEner": 6213,
      "Ġcompare": 6214,
      "Ġorganis": 6215,
      "Ġmeetings": 6216,
      "Ġcreates": 6217,
      "Ġtransition": 6218,
      "Ġvoc": 6219,
      "Ġvast": 6220,
      "ja": 6221,
      "izer": 6222,
      "Ġdiss": 6223,
      "Ġremoval": 6224,
      "Ġorganized": 6225,
      "Ġsurprise": 6226,
      "Ġobtained": 6227,
      "Ġcollaboration": 6228,
      "ĠCam": 6229,
      "Ġtab": 6230,
      "Ġexceed": 6231,
      "ĠSpanish": 6232,
      "Ġdeck": 6233,
      "Ġfoundation": 6234,
      "ĠClean": 6235,
      "arrow": 6236,
      "llo": 6237,
      "Ġcoordin": 6238,
      "Ġimplementation": 6239,
      "ĠOk": 6240,
      "Ġrecorded": 6241,
      "Ġvillage": 6242,
      "MA": 6243,
      "SE": 6244,
      "ena": 6245,
      "ĠSearch": 6246,
      "Ġeleg": 6247,
      "Ġrecognized": 6248,
      "orgeous": 6249,
      "Ġstars": 6250,
      "Ġcontrast": 6251,
      "Ġenthus": 6252,
      "Ġprofit": 6253,
      "OV": 6254,
      "Ġrear": 6255,
      "ĠSeries": 6256,
      "erry": 6257,
      "ĠColl": 6258,
      "Ġextension": 6259,
      "Ġlapt": 6260,
      "Ġimagine": 6261,
      "Ġdestination": 6262,
      "Ġshel": 6263,
      "Ġwitness": 6264,
      "but": 6265,
      "rency": 6266,
      "Ġarg": 6267,
      "uine": 6268,
      "ĠAdminist": 6269,
      "Ġmic": 6270,
      "Ġtrig": 6271,
      "Ġtested": 6272,
      "Ġcommission": 6273,
      "Ġconcrete": 6274,
      "TC": 6275,
      "va": 6276,
      "ppers": 6277,
      "ĠBeaut": 6278,
      "ĠAuthor": 6279,
      "ĠSupport": 6280,
      "ĠAuto": 6281,
      "Ġanx": 6282,
      "liers": 6283,
      "ĠRev": 6284,
      "Ġprecise": 6285,
      "Ġresistance": 6286,
      "MC": 6287,
      "ĠBed": 6288,
      "Ġexpenses": 6289,
      "Ġbirthday": 6290,
      "Ġincreases": 6291,
      "Ġentertainment": 6292,
      "orable": 6293,
      "Ġshock": 6294,
      "ĠJose": 6295,
      "ĠLeague": 6296,
      "Ġfiled": 6297,
      "Ġpleased": 6298,
      "lete": 6299,
      "anges": 6300,
      "Ġdefense": 6301,
      "SP": 6302,
      "ca": 6303,
      "Ġgrew": 6304,
      "Ġnetworks": 6305,
      "ĠUnfortunately": 6306,
      "Ġentreprene": 6307,
      "Ġcrucial": 6308,
      "Ġfro": 6309,
      "irty": 6310,
      "Ġweap": 6311,
      "away": 6312,
      "ĠDespite": 6313,
      "Ġcounsel": 6314,
      "ĠChildren": 6315,
      "Ġpil": 6316,
      "ĠArab": 6317,
      "igration": 6318,
      "Ġscr": 6319,
      "ĠCath": 6320,
      "ĠMax": 6321,
      "ĠThus": 6322,
      "Ġsoil": 6323,
      "ĠCab": 6324,
      "ĠCost": 6325,
      "idays": 6326,
      "ĠLand": 6327,
      "Ġapparent": 6328,
      "TH": 6329,
      "Ġdental": 6330,
      "ĠWay": 6331,
      "ĠChair": 6332,
      "Ġdevelopers": 6333,
      "Ġnormally": 6334,
      "Ġentered": 6335,
      "Ġwinner": 6336,
      "yard": 6337,
      "Ġelection": 6338,
      "Ġnative": 6339,
      "Ġauthority": 6340,
      "ĠMinister": 6341,
      "Ġsou": 6342,
      "Ġnoticed": 6343,
      "ĠÂ©": 6344,
      "ĠPrem": 6345,
      "Ġobjects": 6346,
      "ĠThomas": 6347,
      "Ġgolf": 6348,
      "ĠMP": 6349,
      "ĠPass": 6350,
      "Ġcompens": 6351,
      "ansion": 6352,
      "Ġspiritual": 6353,
      "He": 6354,
      "Ġsky": 6355,
      "rieved": 6356,
      "ĠDigital": 6357,
      "Ġfreedom": 6358,
      "ye": 6359,
      "race": 6360,
      "tr": 6361,
      "ĠRest": 6362,
      "Ġexposure": 6363,
      "Ġpm": 6364,
      "ĠCe": 6365,
      "alled": 6366,
      "Ġadvoc": 6367,
      "Ġimproving": 6368,
      "Ġabsor": 6369,
      "Ġfal": 6370,
      "aturally": 6371,
      "Ġtrends": 6372,
      "Ġcelebrate": 6373,
      "Ġbes": 6374,
      "Ġworse": 6375,
      "ĠThough": 6376,
      "Ġrevealed": 6377,
      "Ġincorpor": 6378,
      "Ġinch": 6379,
      "Ġmoist": 6380,
      "ĠVer": 6381,
      "Ġguidance": 6382,
      "Ġreligious": 6383,
      "ĠAcademy": 6384,
      "ĠPDF": 6385,
      "Ġoven": 6386,
      "ĠCreat": 6387,
      "Ġfeaturing": 6388,
      "Ġpregn": 6389,
      "Ġdraft": 6390,
      "Ã¼": 6391,
      "ĠFestival": 6392,
      "Ġvul": 6393,
      "Ġroot": 6394,
      "ĠPac": 6395,
      "iked": 6396,
      "ĠItaly": 6397,
      "merce": 6398,
      "Ġmedicine": 6399,
      "ĠOrig": 6400,
      "Ġjudge": 6401,
      "secut": 6402,
      "Ġdomestic": 6403,
      "Ġscholars": 6404,
      "bles": 6405,
      "Ġyesterday": 6406,
      "Ġgrab": 6407,
      "Ġreturns": 6408,
      "Ġawarded": 6409,
      "Ġgallery": 6410,
      "Ġmuseum": 6411,
      "Ġdates": 6412,
      "Ġresulting": 6413,
      "Ġcollected": 6414,
      "umps": 6415,
      "Ġhyp": 6416,
      "ĠHim": 6417,
      "Ġtall": 6418,
      "Ġcolumn": 6419,
      "Ġflood": 6420,
      "cknow": 6421,
      "Ġdangerous": 6422,
      "Ġfolks": 6423,
      "Ġtiny": 6424,
      "Ġclothes": 6425,
      "Ġunlike": 6426,
      "Ġoffices": 6427,
      "Ġstructures": 6428,
      "ĠSuch": 6429,
      "Ġgenerate": 6430,
      "Ġperforming": 6431,
      "Ġgarage": 6432,
      "Ġsustainable": 6433,
      "Ġast": 6434,
      "ĠFair": 6435,
      "ĠCa": 6436,
      "car": 6437,
      "ĠMic": 6438,
      "ĠFarm": 6439,
      "Ġmanaging": 6440,
      "ĠWild": 6441,
      "Ġdiscip": 6442,
      "Ġtur": 6443,
      "oston": 6444,
      "ĠKey": 6445,
      "Ġsad": 6446,
      "Ġnone": 6447,
      "Ġmusical": 6448,
      "Ġdifferences": 6449,
      "Ġrom": 6450,
      "ĠMiddle": 6451,
      "Ġwearing": 6452,
      "Ġcontribute": 6453,
      "Ġbanks": 6454,
      "ĠShould": 6455,
      "Ġindustries": 6456,
      "Ġpicked": 6457,
      "ĠCurrent": 6458,
      "eder": 6459,
      "Ġrein": 6460,
      "Ġproof": 6461,
      "ushing": 6462,
      "Ġancient": 6463,
      "case": 6464,
      "ĠSC": 6465,
      "ĠFederal": 6466,
      "ospit": 6467,
      "dden": 6468,
      "%.": 6469,
      "arian": 6470,
      "ĠMult": 6471,
      "ĠJul": 6472,
      "Ġdiscl": 6473,
      "Ġindeed": 6474,
      "Ġodd": 6475,
      "Ġindex": 6476,
      "Ġrecognize": 6477,
      "Ġunable": 6478,
      "Ġarms": 6479,
      "azz": 6480,
      "Ġkilled": 6481,
      "Ġrecy": 6482,
      "Ġphotograp": 6483,
      "ĠIreland": 6484,
      "Ġturning": 6485,
      "ushed": 6486,
      "ĠFlo": 6487,
      "ĠRight": 6488,
      "Ġicon": 6489,
      "Ġfirms": 6490,
      "Ġbear": 6491,
      "ears": 6492,
      "Ġmere": 6493,
      "han": 6494,
      "ĠBible": 6495,
      "Ġexplained": 6496,
      "Ġconsistent": 6497,
      "Ġdisappoint": 6498,
      "RI": 6499,
      "Ġarrest": 6500,
      "Ġgraduate": 6501,
      "date": 6502,
      "Ġboys": 6503,
      "Ġundert": 6504,
      "Ġstrategic": 6505,
      "ache": 6506,
      "Ġprinted": 6507,
      "Ġspons": 6508,
      "Ġmining": 6509,
      "Ġedition": 6510,
      "Ġcommunications": 6511,
      "Ġcandidate": 6512,
      "ĠRoyal": 6513,
      "Ġgifts": 6514,
      "Ġ(\"": 6515,
      "ĠJim": 6516,
      "Ġmixed": 6517,
      "itage": 6518,
      "ĠKnow": 6519,
      "Ġtom": 6520,
      "ĠCup": 6521,
      "ĠLin": 6522,
      "Ġinstrument": 6523,
      "ĠOpt": 6524,
      "Ġtalent": 6525,
      "Ġearned": 6526,
      "ĠSystems": 6527,
      "da": 6528,
      "Ġpapers": 6529,
      "Ġwhenever": 6530,
      "Ġclar": 6531,
      "Ġattached": 6532,
      "Ġinvestigation": 6533,
      "Ġreputation": 6534,
      "ĠWelcome": 6535,
      "ĠAT": 6536,
      "bur": 6537,
      "ĠWatch": 6538,
      "Ġfilms": 6539,
      "Ġdiscussed": 6540,
      "Ġdelay": 6541,
      "Ġcomponent": 6542,
      "ĠAngeles": 6543,
      "Ġdesigner": 6544,
      "Ġsudden": 6545,
      "Ġurban": 6546,
      "Ġpricing": 6547,
      "ĠNever": 6548,
      "Ġcrisis": 6549,
      "ĠHP": 6550,
      "ĠSmall": 6551,
      "Ġpod": 6552,
      "ĠTru": 6553,
      "ĠDC": 6554,
      "Ġimpossible": 6555,
      "Ġtells": 6556,
      "ĠEnergy": 6557,
      "writ": 6558,
      "Ġ000000": 6559,
      "Ġattorney": 6560,
      "Ġairport": 6561,
      "ĠScot": 6562,
      "Ġfairly": 6563,
      "Ġfavourite": 6564,
      "ĠHa": 6565,
      "Ġtro": 6566,
      "alle": 6567,
      "ĠSite": 6568,
      "ĠSEO": 6569,
      "Ġhero": 6570,
      "Ġbooking": 6571,
      "kers": 6572,
      "nic": 6573,
      "ĠYet": 6574,
      "ĠLibrary": 6575,
      "ĠExecut": 6576,
      "Ġconfident": 6577,
      "Ġsamples": 6578,
      "wing": 6579,
      "ĠCross": 6580,
      "Ġletters": 6581,
      "Ġgrass": 6582,
      "Ġpreparation": 6583,
      "Ġguidelines": 6584,
      "Ġobvious": 6585,
      "ĠMen": 6586,
      "Ġmeals": 6587,
      "berry": 6588,
      "ĠLook": 6589,
      "ĠVill": 6590,
      "ii": 6591,
      "Ġsin": 6592,
      "profit": 6593,
      "yan": 6594,
      "celer": 6595,
      "ailable": 6596,
      "ĠLouis": 6597,
      "Ġacknow": 6598,
      "Ġenables": 6599,
      "REE": 6600,
      "astern": 6601,
      "illy": 6602,
      "igure": 6603,
      "Ġproven": 6604,
      "Ġlogo": 6605,
      "ĠSecret": 6606,
      "ĠBuilding": 6607,
      "Ñĥ": 6608,
      "ĠPoint": 6609,
      "ĠBeing": 6610,
      "Ġattended": 6611,
      "ĠMexico": 6612,
      "ĠCond": 6613,
      "Ġgenerated": 6614,
      "____": 6615,
      "Ġjack": 6616,
      "ĠForm": 6617,
      "ĠCoast": 6618,
      "Ġmerch": 6619,
      "PR": 6620,
      "Ġfishing": 6621,
      "ĠEnd": 6622,
      "Ġsubsequ": 6623,
      "Ġapproval": 6624,
      "ĠPhys": 6625,
      "Ġfaculty": 6626,
      "Ġdomin": 6627,
      "bra": 6628,
      "icit": 6629,
      "ĠTimes": 6630,
      "Ġlessons": 6631,
      "ingly": 6632,
      "Ġlistening": 6633,
      "Ġreward": 6634,
      "ĠDef": 6635,
      "Ġvisited": 6636,
      "Ġfacts": 6637,
      "ĠAccount": 6638,
      "bi": 6639,
      "Ġsufficient": 6640,
      "Ġconstant": 6641,
      "Ġtelevision": 6642,
      "Ġwest": 6643,
      "Ġshops": 6644,
      "Ġlinked": 6645,
      "Ġattractive": 6646,
      "under": 6647,
      "Ġsight": 6648,
      "Ġchief": 6649,
      "comm": 6650,
      "holders": 6651,
      "Ġdynamic": 6652,
      "ingu": 6653,
      "Ġauthors": 6654,
      "Ġoriginally": 6655,
      "Ġliquid": 6656,
      "inos": 6657,
      "resents": 6658,
      "Ġordered": 6659,
      "Ġtelling": 6660,
      "arks": 6661,
      "ĠGar": 6662,
      "Ġdownt": 6663,
      "ĠSaf": 6664,
      "ĠBob": 6665,
      "ĠLow": 6666,
      "Ġpossibility": 6667,
      "Ġocean": 6668,
      "Ġtaxes": 6669,
      "Ġwet": 6670,
      "utter": 6671,
      "ĠAR": 6672,
      "duate": 6673,
      "\")": 6674,
      "Ġpill": 6675,
      "ĠHen": 6676,
      "Ġadventure": 6677,
      "folio": 6678,
      "ĠKen": 6679,
      "Ġreducing": 6680,
      "Ġreplaced": 6681,
      "ideo": 6682,
      "Ġbridge": 6683,
      "Ġformal": 6684,
      "Ġsoul": 6685,
      "Ġpipe": 6686,
      "Ġofficer": 6687,
      "Ġachieved": 6688,
      "Ġnegoti": 6689,
      "Ġinvited": 6690,
      "Ġmotion": 6691,
      "vy": 6692,
      "Ġclothing": 6693,
      "ĠClin": 6694,
      "Ġveter": 6695,
      "ĠOrder": 6696,
      "ĠQueen": 6697,
      "Ġvulner": 6698,
      "luded": 6699,
      "Ġwidely": 6700,
      "Ġimmediate": 6701,
      "Ġsuc": 6702,
      "Ġadds": 6703,
      "Ġexpression": 6704,
      "ĠDev": 6705,
      "Ġinterpret": 6706,
      "ĠLee": 6707,
      "ĠRemember": 6708,
      "ĠIran": 6709,
      "oral": 6710,
      "Ġthin": 6711,
      "ĠWould": 6712,
      "ĠBoston": 6713,
      "Ġjew": 6714,
      "enced": 6715,
      "oty": 6716,
      "Ġdealing": 6717,
      "Ġsuperior": 6718,
      "ading": 6719,
      "Ġhandling": 6720,
      "Ġrealized": 6721,
      "Ġprinting": 6722,
      "Ġconclus": 6723,
      "ophy": 6724,
      "Ġproducing": 6725,
      "ĠReport": 6726,
      "ĠAssist": 6727,
      "Ġmanufacturers": 6728,
      "ĠWebs": 6729,
      "ographic": 6730,
      "II": 6731,
      "Ġcute": 6732,
      "Ġprove": 6733,
      "ĠChris": 6734,
      "Ġsmile": 6735,
      "Ġbreast": 6736,
      "Ġarrive": 6737,
      "igned": 6738,
      "Ġsuggested": 6739,
      "Ġgenuine": 6740,
      "Ġprimarily": 6741,
      "Ġcompat": 6742,
      "Ġbodies": 6743,
      "Ġforced": 6744,
      "achel": 6745,
      "Ġchannels": 6746,
      "worth": 6747,
      "ĠAri": 6748,
      "anger": 6749,
      "Ġwithd": 6750,
      "Ġrating": 6751,
      "Ġavailability": 6752,
      "Ġconfirmed": 6753,
      "ĠPrice": 6754,
      "ĠRoom": 6755,
      "ĠCharl": 6756,
      "ĠAdditionally": 6757,
      "hire": 6758,
      "ĠStore": 6759,
      "Ġsolve": 6760,
      "Ġversions": 6761,
      "ras": 6762,
      "Ġongoing": 6763,
      "abet": 6764,
      "Ġrepresents": 6765,
      "Ġdrag": 6766,
      "Ġestimated": 6767,
      "front": 6768,
      "ĠFun": 6769,
      "Ġok": 6770,
      "Ġsomewhat": 6771,
      "Ġspeech": 6772,
      "Ġdesired": 6773,
      "Ġathlet": 6774,
      "Ġrig": 6775,
      "ogue": 6776,
      "Ġvegetables": 6777,
      "Ġempt": 6778,
      "rig": 6779,
      "Ġlosing": 6780,
      "ĠCO": 6781,
      "Ġheav": 6782,
      "ĠShop": 6783,
      "Ġdescribe": 6784,
      "Ġevaluation": 6785,
      "ifies": 6786,
      "Ġpursu": 6787,
      "Ġinjuries": 6788,
      "Ġforth": 6789,
      "Ġstim": 6790,
      "ĠMur": 6791,
      "Ġfounded": 6792,
      "cover": 6793,
      "can": 6794,
      "cers": 6795,
      "df": 6796,
      "pel": 6797,
      "agon": 6798,
      "Ġequipped": 6799,
      "Ġbasket": 6800,
      "edia": 6801,
      "Ġgorgeous": 6802,
      "ĠNon": 6803,
      "Ġrelief": 6804,
      "Ġplatforms": 6805,
      "ĠLED": 6806,
      "Ġrecipes": 6807,
      "tle": 6808,
      "nament": 6809,
      "ĠPolice": 6810,
      "Ġsusp": 6811,
      "law": 6812,
      "Ġlamp": 6813,
      "ĠLittle": 6814,
      "Ġshift": 6815,
      "Ġcontest": 6816,
      "].": 6817,
      "stal": 6818,
      "asters": 6819,
      "Ġtransp": 6820,
      "Ġrecommendations": 6821,
      "Ġbags": 6822,
      "Ġhur": 6823,
      "ĠSky": 6824,
      "Ġtech": 6825,
      "Ġdepends": 6826,
      "Ġmillions": 6827,
      "Ġarchitecture": 6828,
      "ainless": 6829,
      "Ġchapter": 6830,
      "Ġresume": 6831,
      "Ġdefend": 6832,
      "EA": 6833,
      "Ġinner": 6834,
      "ĠPenn": 6835,
      "ĠDub": 6836,
      "Ġfigures": 6837,
      "cking": 6838,
      "omy": 6839,
      "ĠMS": 6840,
      "Ġapplicable": 6841,
      "Ġupgrade": 6842,
      "ĠEngineering": 6843,
      "isk": 6844,
      "ĠSn": 6845,
      "Ġstored": 6846,
      "Ġworkshop": 6847,
      "ĠÂ·": 6848,
      "Ġsucceed": 6849,
      "Ġrenov": 6850,
      "gend": 6851,
      "Ġtransportation": 6852,
      "hem": 6853,
      "Ġcomparison": 6854,
      "host": 6855,
      "site": 6856,
      "uction": 6857,
      "Ġ!": 6858,
      "iser": 6859,
      "Ġje": 6860,
      "Ġtrave": 6861,
      "Ġpenal": 6862,
      "**": 6863,
      "lymp": 6864,
      "Ġstake": 6865,
      "ĠGame": 6866,
      "Ġcertification": 6867,
      "Ġyounger": 6868,
      "ĠPerhaps": 6869,
      "Ġscheme": 6870,
      "ĠHistory": 6871,
      "HS": 6872,
      "rich": 6873,
      "Ġtank": 6874,
      "ĠVan": 6875,
      "Ġcontrolled": 6876,
      "Ġdisplayed": 6877,
      "LS": 6878,
      "ulpt": 6879,
      "ĠYouT": 6880,
      "Ġaccessories": 6881,
      "Ġanticip": 6882,
      "Ġreferred": 6883,
      "Sh": 6884,
      "gers": 6885,
      "entle": 6886,
      "Ġbell": 6887,
      "ĠStill": 6888,
      "Ġscan": 6889,
      "ĠInstagram": 6890,
      "Ġduty": 6891,
      "Ġmold": 6892,
      "ĠComput": 6893,
      "Ġenterprise": 6894,
      "MP": 6895,
      "Ġmur": 6896,
      "quality": 6897,
      "ĠLive": 6898,
      "Ġrecon": 6899,
      "Ġguitar": 6900,
      "Ġtreatments": 6901,
      "Ġfasc": 6902,
      "apore": 6903,
      "ĠIsl": 6904,
      "ican": 6905,
      "ĠMartin": 6906,
      "sters": 6907,
      "ĠInf": 6908,
      "neys": 6909,
      "GB": 6910,
      "ĠAp": 6911,
      "Ġrose": 6912,
      "Ġtrick": 6913,
      "Ġcapabilities": 6914,
      "inch": 6915,
      "Ġexperiment": 6916,
      "Ġspecialist": 6917,
      "inem": 6918,
      "eding": 6919,
      "quir": 6920,
      "Ġchose": 6921,
      "ĠMeet": 6922,
      "Ġevol": 6923,
      "ĠSection": 6924,
      "Ġreporting": 6925,
      "Ġamounts": 6926,
      "Ġcapture": 6927,
      "ĠMembers": 6928,
      "Ġbeer": 6929,
      "ĠTravel": 6930,
      "Ġhall": 6931,
      "owing": 6932,
      "ĠHon": 6933,
      "ĠVirginia": 6934,
      "ĠCast": 6935,
      "ĠBow": 6936,
      "Ġinsert": 6937,
      "Ġfinance": 6938,
      "Ġrequirement": 6939,
      "ĠGeorg": 6940,
      "Ġcos": 6941,
      "Ġsubmitted": 6942,
      "UN": 6943,
      "ĠFour": 6944,
      "ĠFIG": 6945,
      "Ġvent": 6946,
      "oster": 6947,
      "Ġrecording": 6948,
      "Ġlayout": 6949,
      "friendly": 6950,
      "aper": 6951,
      "ĠSea": 6952,
      "ĠComple": 6953,
      "Ġcrime": 6954,
      "Ġcookies": 6955,
      "Ġfellow": 6956,
      "ĠRetrieved": 6957,
      "Ġeligible": 6958,
      "Ġë": 6959,
      "ĠAD": 6960,
      "terior": 6961,
      "Ġsaved": 6962,
      "ĠColumb": 6963,
      "Ġbottle": 6964,
      "ĠMid": 6965,
      "Ġsurprised": 6966,
      "Ġfestival": 6967,
      "class": 6968,
      "Ġcommittee": 6969,
      "Ġstatements": 6970,
      "Ġlegs": 6971,
      "Ġpercentage": 6972,
      "Ġterror": 6973,
      "Press": 6974,
      "Ġtap": 6975,
      "Ġaside": 6976,
      "Ġunex": 6977,
      "ĠZeal": 6978,
      "mary": 6979,
      "ĠNeed": 6980,
      "Ġwriters": 6981,
      "Ġcalifornia": 6982,
      "Ġcircuit": 6983,
      "Ġaccomplish": 6984,
      "ĠExecutive": 6985,
      "uct": 6986,
      "ĠFort": 6987,
      "Ġcommunicate": 6988,
      "Ġzone": 6989,
      "Ġawards": 6990,
      "lements": 6991,
      "ura": 6992,
      "Ġrelative": 6993,
      "Ġstretch": 6994,
      "pack": 6995,
      "Ġ<": 6996,
      "Ġextent": 6997,
      "ĠConnect": 6998,
      "Ġtracking": 6999,
      "Ġhistoric": 7000,
      "Ġ..": 7001,
      "ĠWH": 7002,
      "ĠJun": 7003,
      "Ġensuring": 7004,
      "Ġaddresses": 7005,
      "Ġflavor": 7006,
      "PC": 7007,
      "ether": 7008,
      "Ġdispl": 7009,
      "ĠChief": 7010,
      "Ġreduction": 7011,
      "Ġinvolves": 7012,
      "ĠSteve": 7013,
      "Ġauthorities": 7014,
      "Ġarray": 7015,
      "Ġlicensed": 7016,
      "Ñķ": 7017,
      "Ġliked": 7018,
      "Ġoverw": 7019,
      "ĠJeff": 7020,
      "Ġconflict": 7021,
      "Ġfru": 7022,
      "Ġentit": 7023,
      "Ġinsight": 7024,
      "Ġguard": 7025,
      "Ġplanet": 7026,
      "Ġcontrols": 7027,
      "Ġconcerning": 7028,
      "AB": 7029,
      "zil": 7030,
      "Ġmixture": 7031,
      "Ġdust": 7032,
      "eline": 7033,
      "Ġenem": 7034,
      "ĠInsurance": 7035,
      "à¸": 7036,
      "odel": 7037,
      "Ġpowder": 7038,
      "ran": 7039,
      "ĠProper": 7040,
      "Ġcriminal": 7041,
      "Ġhumans": 7042,
      "Ġexception": 7043,
      "oh": 7044,
      "ĠSanta": 7045,
      "Ġmatches": 7046,
      "Ġblend": 7047,
      "ĠObama": 7048,
      "Ġyard": 7049,
      "Ġsmell": 7050,
      "Ġinteract": 7051,
      "Ġforecast": 7052,
      "anted": 7053,
      "ĠOlymp": 7054,
      "ĠThree": 7055,
      "Ġteen": 7056,
      "ogen": 7057,
      "Ġflower": 7058,
      "Ġultimately": 7059,
      "Ġfalse": 7060,
      "ba": 7061,
      "cue": 7062,
      "gas": 7063,
      "ĠZealand": 7064,
      "zing": 7065,
      "ĠWeek": 7066,
      "Ġfollows": 7067,
      "Ġbuyers": 7068,
      "Ġerrors": 7069,
      "build": 7070,
      "ĠBa": 7071,
      "Ġhabit": 7072,
      "Ġseriously": 7073,
      "ĠCra": 7074,
      "weet": 7075,
      "Ġdecade": 7076,
      "Ġalongside": 7077,
      "Ġdeposit": 7078,
      "she": 7079,
      "ĠSouthern": 7080,
      "ĠPract": 7081,
      "Ġadm": 7082,
      "Ġmuscle": 7083,
      "Ġmattress": 7084,
      "zes": 7085,
      "Ġtip": 7086,
      "Ġfunctional": 7087,
      "ĠHospital": 7088,
      "ĠDisney": 7089,
      "ĠMcC": 7090,
      "Ġsick": 7091,
      "ĠMobile": 7092,
      "ĠPut": 7093,
      "Ġsynt": 7094,
      "Ġsatisfaction": 7095,
      "Ġol": 7096,
      "level": 7097,
      "ĠRef": 7098,
      "Ġinspe": 7099,
      "Ġdrawing": 7100,
      "Ġcrusher": 7101,
      "ĠLink": 7102,
      "Ġtape": 7103,
      "Ġattach": 7104,
      "itution": 7105,
      "Ġid": 7106,
      "Ġagricult": 7107,
      "Ġsoph": 7108,
      "ĠCir": 7109,
      "uls": 7110,
      "Ġenforce": 7111,
      "ĠYouTube": 7112,
      "Ġborder": 7113,
      "Ġmoves": 7114,
      "Ġregions": 7115,
      "Ġnutrition": 7116,
      "ĠHelp": 7117,
      "urse": 7118,
      "Ġcharm": 7119,
      "Ġwireless": 7120,
      "EE": 7121,
      "ht": 7122,
      "person": 7123,
      "Ġhidden": 7124,
      "iences": 7125,
      "Ġbehalf": 7126,
      "ione": 7127,
      "ellect": 7128,
      "ardens": 7129,
      "Ġbrill": 7130,
      "Ġmanagers": 7131,
      "ĠAgree": 7132,
      "Ġpriority": 7133,
      "Ġapplying": 7134,
      "missions": 7135,
      "Ġmand": 7136,
      "ĠCR": 7137,
      "Ġraw": 7138,
      "Ġflash": 7139,
      "Ġbelieved": 7140,
      "ĠSingapore": 7141,
      "Ġnarrow": 7142,
      "Ġpassing": 7143,
      "ĠAgain": 7144,
      "Ġhonor": 7145,
      "Ġpersons": 7146,
      "etry": 7147,
      "ĠBlo": 7148,
      "ĠEp": 7149,
      "ennis": 7150,
      "Ġboxes": 7151,
      "Ġattacks": 7152,
      "Ġslowly": 7153,
      "Ġcodes": 7154,
      "Ġdent": 7155,
      "Ġultimate": 7156,
      "rated": 7157,
      "ĠBall": 7158,
      "Ġintroduction": 7159,
      "Ġads": 7160,
      "ĠJoe": 7161,
      "ĠGuide": 7162,
      "Ġnuclear": 7163,
      "ĠBox": 7164,
      "Ġelev": 7165,
      "Ġprinciples": 7166,
      "lder": 7167,
      "Ġlaptop": 7168,
      "VD": 7169,
      "Ã³": 7170,
      "ĠCome": 7171,
      "ĠLib": 7172,
      "ĠYoung": 7173,
      "Ġstring": 7174,
      "CE": 7175,
      "Ð»": 7176,
      "ĠSar": 7177,
      "ĠUt": 7178,
      "Ġexperim": 7179,
      "Ġrely": 7180,
      "atell": 7181,
      "Ġmagazine": 7182,
      "long": 7183,
      "ns": 7184,
      "Ġservers": 7185,
      "Ġcounty": 7186,
      "Ġhotels": 7187,
      "EST": 7188,
      "Ġmagic": 7189,
      "Ġtwe": 7190,
      "ĠLocal": 7191,
      "Ġsplit": 7192,
      "ĠFOR": 7193,
      "ipt": 7194,
      "enger": 7195,
      "ĠBon": 7196,
      "ĠHard": 7197,
      "Ġusage": 7198,
      "Ġpresents": 7199,
      "Ġlikes": 7200,
      "ĠJewish": 7201,
      "Ġseats": 7202,
      "Ġsharp": 7203,
      "Ġnoise": 7204,
      "Ġreader": 7205,
      "Ġpurchasing": 7206,
      "Ġofficers": 7207,
      "Ġspeaker": 7208,
      "yers": 7209,
      "Ġhang": 7210,
      "ĠTerm": 7211,
      "ulum": 7212,
      "Ġroles": 7213,
      "Ġconsists": 7214,
      "ĠConf": 7215,
      "Ġregardless": 7216,
      "Ġbench": 7217,
      "real": 7218,
      "ĠCook": 7219,
      "isters": 7220,
      "Ġvibr": 7221,
      "Ġunderst": 7222,
      "Ġwash": 7223,
      "Ġspoke": 7224,
      "Ġamend": 7225,
      "Ġpromise": 7226,
      "Ġlawyer": 7227,
      "athy": 7228,
      "ĠTraining": 7229,
      "ĠSales": 7230,
      "GE": 7231,
      "Ġspin": 7232,
      "Ġillness": 7233,
      "ĠFinancial": 7234,
      "Ġpreferred": 7235,
      "cular": 7236,
      "ĠNight": 7237,
      "Ġconsideration": 7238,
      "ĠGames": 7239,
      "Ġram": 7240,
      "Ġpackages": 7241,
      "proof": 7242,
      "zer": 7243,
      "stream": 7244,
      "Ġsomewhere": 7245,
      "ml": 7246,
      "igate": 7247,
      "Ġviewed": 7248,
      "Ġfighting": 7249,
      "Ġwhilst": 7250,
      "uster": 7251,
      "Ġvisible": 7252,
      "Ġlad": 7253,
      "Ġoutcomes": 7254,
      "Ġtracks": 7255,
      "ĠJoin": 7256,
      "ATION": 7257,
      "Ġcommonly": 7258,
      "Ġcategories": 7259,
      "Ġcontinuing": 7260,
      "ĠBath": 7261,
      "Ġdiagram": 7262,
      "Ġconnections": 7263,
      "Ġliability": 7264,
      "ĠÎ": 7265,
      "Ġpink": 7266,
      "Ġphones": 7267,
      "Ġengaged": 7268,
      "ERS": 7269,
      "Ġelectricity": 7270,
      "ĠDie": 7271,
      "ĠRoll": 7272,
      "agues": 7273,
      "Ġspecified": 7274,
      "Ġbasically": 7275,
      "Ġsuggests": 7276,
      "ĠEss": 7277,
      "ĠRichard": 7278,
      "bration": 7279,
      "kins": 7280,
      "Ġmile": 7281,
      "Ġmale": 7282,
      "Ġstro": 7283,
      "ĠHappy": 7284,
      "ĠOS": 7285,
      "pie": 7286,
      "ĠPot": 7287,
      "Ġcompliance": 7288,
      "Ġslot": 7289,
      "Ġprospect": 7290,
      "Ġexport": 7291,
      "Ġlimits": 7292,
      "ĠMarketing": 7293,
      "Ġepisode": 7294,
      "Ġille": 7295,
      "Ġpermanent": 7296,
      "ĠPS": 7297,
      "Ġweekly": 7298,
      "Ġframework": 7299,
      "ĠSon": 7300,
      "lose": 7301,
      "Ġflour": 7302,
      "Ġapproaches": 7303,
      "Ġshooting": 7304,
      "Ġpleasure": 7305,
      "hew": 7306,
      "Ġnaturally": 7307,
      "Ġkm": 7308,
      "gged": 7309,
      "Ġwalked": 7310,
      "As": 7311,
      "Ġblocks": 7312,
      "Ġpotentially": 7313,
      "Ġviolence": 7314,
      "Ġsuffering": 7315,
      "ĠMountain": 7316,
      "esh": 7317,
      "Ġmm": 7318,
      "ĠMachine": 7319,
      "oured": 7320,
      "arters": 7321,
      "Ġcritic": 7322,
      "Ġmarked": 7323,
      "sup": 7324,
      "Ġwra": 7325,
      "Ġcotton": 7326,
      "Ġcoat": 7327,
      "Ġsuppliers": 7328,
      "Ġjoining": 7329,
      "Ġdestroy": 7330,
      "Ġtomorrow": 7331,
      "then": 7332,
      "Ġcausing": 7333,
      "Ġsuggestions": 7334,
      "Ġhoping": 7335,
      "ĠOhio": 7336,
      "Ġeast": 7337,
      "Ġportfolio": 7338,
      "elf": 7339,
      "ĠSpirit": 7340,
      "Ġdreams": 7341,
      "Ġgraphics": 7342,
      "gor": 7343,
      "Ġmg": 7344,
      "Ġnewly": 7345,
      "iano": 7346,
      "Ġsensitive": 7347,
      "ĠSilver": 7348,
      "Ġauthentic": 7349,
      "Ġcush": 7350,
      "Ġyield": 7351,
      "ĠTax": 7352,
      "Ġscores": 7353,
      "Ġrequested": 7354,
      "Ġexpressed": 7355,
      "Ġposting": 7356,
      "Ġincreasingly": 7357,
      "ĠProfessional": 7358,
      "DS": 7359,
      "Ġhealing": 7360,
      "Ġopposite": 7361,
      "Ġcorrectly": 7362,
      "ĠCarolina": 7363,
      "inent": 7364,
      "Ġkne": 7365,
      "ĠSummer": 7366,
      "Ġtor": 7367,
      "Ġtooth": 7368,
      "Ġhospit": 7369,
      "tocol": 7370,
      "Ġexposed": 7371,
      "tense": 7372,
      "ĠWorks": 7373,
      "Ġcrowd": 7374,
      "Ġremark": 7375,
      "ĠWilliams": 7376,
      "Ġlucky": 7377,
      "vas": 7378,
      "Ġherself": 7379,
      "Ġattra": 7380,
      "Ġincredibly": 7381,
      "Ø§": 7382,
      "ĠJackson": 7383,
      "ĠRam": 7384,
      "ĠGive": 7385,
      "Ġloving": 7386,
      "Ġinteractive": 7387,
      "Ġmarks": 7388,
      "Ġoverwhel": 7389,
      "ĠFL": 7390,
      "Ġsetup": 7391,
      "ĠAndrew": 7392,
      "Ġsending": 7393,
      "Ġvolunteers": 7394,
      "you": 7395,
      "Ġshouldn": 7396,
      "Ġsensor": 7397,
      "Ġminimal": 7398,
      "Ġcontainer": 7399,
      "ĠPacific": 7400,
      "dney": 7401,
      "Ġtack": 7402,
      "ati": 7403,
      "ĠCB": 7404,
      "ĠFriend": 7405,
      "rowse": 7406,
      "Ġwarn": 7407,
      "phy": 7408,
      "Ġstrict": 7409,
      "Ġaccuracy": 7410,
      "ulating": 7411,
      "Ġinstant": 7412,
      "haust": 7413,
      "ĠWrit": 7414,
      "ĠGir": 7415,
      "Ġcertificate": 7416,
      "Ġexceptional": 7417,
      "ĠJersey": 7418,
      "Ġmemories": 7419,
      "Ġintent": 7420,
      "ĠMean": 7421,
      "Ġbelieves": 7422,
      "âĢ²âĢ²": 7423,
      "rip": 7424,
      "itan": 7425,
      "Ġtrips": 7426,
      "ument": 7427,
      "Ġpra": 7428,
      "ĠPA": 7429,
      "ĠHoly": 7430,
      "ĠDu": 7431,
      "ĠEnt": 7432,
      "ivalent": 7433,
      "gypt": 7434,
      "Ġpace": 7435,
      "ĠNorthern": 7436,
      "Ġpermission": 7437,
      "Ġacts": 7438,
      "Ġpotato": 7439,
      "????": 7440,
      "Ã¶": 7441,
      "ĠFREE": 7442,
      "Ġcareful": 7443,
      "ĠWordPress": 7444,
      "ĠSci": 7445,
      "Ġconvert": 7446,
      "ĠRoman": 7447,
      "Ġdoctors": 7448,
      "ĠJones": 7449,
      "Ġdiseases": 7450,
      "ĠQuality": 7451,
      "riers": 7452,
      "Ġdispos": 7453,
      "Ġtransaction": 7454,
      "Ġskilled": 7455,
      "ugs": 7456,
      "ĠSports": 7457,
      "Ġretirement": 7458,
      "Is": 7459,
      "riger": 7460,
      "Ġreform": 7461,
      "Ġcurtain": 7462,
      "Ġpoker": 7463,
      "iverse": 7464,
      "rer": 7465,
      "Ġwooden": 7466,
      "Ġmaintaining": 7467,
      "ĠIrish": 7468,
      "BM": 7469,
      "Ġjustice": 7470,
      "ributes": 7471,
      "FL": 7472,
      "Ġchances": 7473,
      "Ġscope": 7474,
      "Ġexpansion": 7475,
      "Ġenjoying": 7476,
      "Ġrequests": 7477,
      "Ġhttps": 7478,
      "Ġstruggle": 7479,
      "ĠHeart": 7480,
      "Ġdriven": 7481,
      "Ġtemporary": 7482,
      "Ġfunctionality": 7483,
      "Ġspeakers": 7484,
      "Ġexhibition": 7485,
      "Ġheating": 7486,
      "ĠMichigan": 7487,
      "ĠPhoto": 7488,
      "Ġtagged": 7489,
      "och": 7490,
      "eters": 7491,
      "Ġcolours": 7492,
      "Ġstaying": 7493,
      "Ġcomputers": 7494,
      "Ġconcepts": 7495,
      "ĠFord": 7496,
      "Ġaccord": 7497,
      "Ġtransmission": 7498,
      "Ġcrazy": 7499,
      "ĠPersonal": 7500,
      "essel": 7501,
      "Ġprogramming": 7502,
      "ĠWebsite": 7503,
      "nda": 7504,
      "Ġhyper": 7505,
      "ĠBrazil": 7506,
      "Ġstreets": 7507,
      "CT": 7508,
      "pending": 7509,
      "ĠProfessor": 7510,
      "onto": 7511,
      "Ġbare": 7512,
      "irts": 7513,
      "ologist": 7514,
      "holder": 7515,
      "lers": 7516,
      "uing": 7517,
      "ouch": 7518,
      "iversary": 7519,
      "Ġforever": 7520,
      "ilipp": 7521,
      "tics": 7522,
      "aded": 7523,
      "ags": 7524,
      "ĠWi": 7525,
      "uling": 7526,
      "Ġsofa": 7527,
      "ï¿½ï¿½": 7528,
      "Ġdollar": 7529,
      "Ġblind": 7530,
      "Ġlists": 7531,
      "ĠBrand": 7532,
      "Ġneighb": 7533,
      "Ġlect": 7534,
      "ĠJon": 7535,
      "RS": 7536,
      "Ġphen": 7537,
      "Ġadvent": 7538,
      "ĠSmart": 7539,
      "Ġsubscrib": 7540,
      "Ġscientists": 7541,
      "state": 7542,
      "utch": 7543,
      "ĠDecor": 7544,
      "Ġcontaining": 7545,
      "ĠPrint": 7546,
      "Ġzero": 7547,
      "Ex": 7548,
      "page": 7549,
      "Ġlaugh": 7550,
      "Ġrespectively": 7551,
      "Ġencouraged": 7552,
      "Cl": 7553,
      "ĠTal": 7554,
      "Ġcarpet": 7555,
      "What": 7556,
      "Ġentrance": 7557,
      "hops": 7558,
      "Ġpad": 7559,
      "Ġintense": 7560,
      "Ġvictory": 7561,
      "ĠHor": 7562,
      "Ġtrim": 7563,
      "Ġeverywhere": 7564,
      "ĠEnvironment": 7565,
      "Ġcharacteristics": 7566,
      "Ġargument": 7567,
      "bel": 7568,
      "áĥ": 7569,
      "Ġinn": 7570,
      "rad": 7571,
      "ĠRose": 7572,
      "!)": 7573,
      "bits": 7574,
      "oking": 7575,
      "Ġreaction": 7576,
      "Ġsupplement": 7577,
      "Ġhosted": 7578,
      "ĠStock": 7579,
      "Ġstorm": 7580,
      "Ġdelivering": 7581,
      "anes": 7582,
      "Ġalumin": 7583,
      "Ġkil": 7584,
      "izza": 7585,
      "liament": 7586,
      "Ġasset": 7587,
      "Ġvolt": 7588,
      "Ġtraveling": 7589,
      "Ġholidays": 7590,
      "Ġliterally": 7591,
      "Ġcomplicated": 7592,
      "Ġelegant": 7593,
      "LY": 7594,
      "born": 7595,
      "Ġunw": 7596,
      "ĠStat": 7597,
      "Ġrefund": 7598,
      "Ġobst": 7599,
      "Ġintegration": 7600,
      "ystem": 7601,
      "Ã¤": 7602,
      "Ġresort": 7603,
      "ults": 7604,
      "Ġconsumption": 7605,
      "ventional": 7606,
      "ĠIra": 7607,
      "Ġcovering": 7608,
      "Ġfib": 7609,
      "Ġcalendar": 7610,
      "bar": 7611,
      "aints": 7612,
      "Ġmeets": 7613,
      "Ġhurt": 7614,
      "Ġrice": 7615,
      "Ġcontained": 7616,
      "Ġincident": 7617,
      "ĠPerform": 7618,
      "Ġdefinition": 7619,
      "ĠStudies": 7620,
      "Ġutility": 7621,
      "Ġmaintained": 7622,
      "ĠModern": 7623,
      "Ġunexpected": 7624,
      "Ġtum": 7625,
      "ĠFre": 7626,
      "Ġtermin": 7627,
      "AA": 7628,
      "Fi": 7629,
      "Re": 7630,
      "tes": 7631,
      "ĠCub": 7632,
      "ĠPage": 7633,
      "Ġvintage": 7634,
      "ĠChampions": 7635,
      "Ġacceler": 7636,
      "Ġpersonality": 7637,
      "riculum": 7638,
      "Ġcombine": 7639,
      "ĠIdeas": 7640,
      "Ġforum": 7641,
      "Ġheads": 7642,
      "!!!!": 7643,
      "ĠTurn": 7644,
      "Ġorange": 7645,
      "Ġscreens": 7646,
      "Ġrecognition": 7647,
      "Ġjewel": 7648,
      "amental": 7649,
      "Ġsignature": 7650,
      "Ġpanels": 7651,
      "Ġswimming": 7652,
      "stery": 7653,
      "Ġoutcome": 7654,
      "Ġblank": 7655,
      "Ġhopes": 7656,
      "Ġempty": 7657,
      "FC": 7658,
      "mo": 7659,
      "inn": 7660,
      "Ġproposal": 7661,
      "Ġguaranteed": 7662,
      "Ġassigned": 7663,
      "bing": 7664,
      "Ġcarrying": 7665,
      "Ġindicate": 7666,
      "Ġnic": 7667,
      "ĠCro": 7668,
      "ĠBang": 7669,
      "Ġworst": 7670,
      "Ġassume": 7671,
      "stract": 7672,
      "erving": 7673,
      "Ġcenters": 7674,
      "Ġrecover": 7675,
      "Ġinvolving": 7676,
      "If": 7677,
      "ĠMade": 7678,
      "ĠSelect": 7679,
      "ĠArea": 7680,
      "ĠSS": 7681,
      "Ġrural": 7682,
      "Ġmarriage": 7683,
      "Ġlowest": 7684,
      "Ġobviously": 7685,
      "ĠAwards": 7686,
      "olid": 7687,
      "ĠLy": 7688,
      "Ġcann": 7689,
      "ĠEgypt": 7690,
      "redit": 7691,
      "ansas": 7692,
      "Ġque": 7693,
      "ĠSpain": 7694,
      "Ġchecking": 7695,
      "Ġtons": 7696,
      "iler": 7697,
      "Ġanyway": 7698,
      "annel": 7699,
      "Ġceiling": 7700,
      "Ġstudying": 7701,
      "Ġnecessarily": 7702,
      "Ġobserved": 7703,
      "Ġassembly": 7704,
      "Ġhole": 7705,
      "ĠEll": 7706,
      "Ġtransactions": 7707,
      "Ġdropped": 7708,
      "ĠLiving": 7709,
      "osc": 7710,
      "aken": 7711,
      "Ġtoile": 7712,
      "ĠCON": 7713,
      "Ġdivid": 7714,
      "ĠWalk": 7715,
      "ĠProm": 7716,
      "ogether": 7717,
      "ĠVideo": 7718,
      "Ġlisting": 7719,
      "Ġcrack": 7720,
      "Ġcriteria": 7721,
      "Ġstations": 7722,
      "Ġconsultation": 7723,
      "Ðº": 7724,
      "orous": 7725,
      "Ġunus": 7726,
      "phones": 7727,
      "ĠQuest": 7728,
      "ĠFac": 7729,
      "Ġelectron": 7730,
      "bridge": 7731,
      "Ġdamaged": 7732,
      "Ġlifetime": 7733,
      "itis": 7734,
      "ĠSH": 7735,
      "ĠSus": 7736,
      "igent": 7737,
      "Ġexhaust": 7738,
      "Ġbelt": 7739,
      "ĠKingdom": 7740,
      "Ġfits": 7741,
      "ĠOnt": 7742,
      "ĠKitchen": 7743,
      "Ġfunny": 7744,
      "ounter": 7745,
      "Ġemployer": 7746,
      "brid": 7747,
      "onym": 7748,
      "Ġdebate": 7749,
      "eah": 7750,
      "Ġadequ": 7751,
      "Ġrepairs": 7752,
      "ĠVisit": 7753,
      "ĠSoftware": 7754,
      "Ġhi": 7755,
      "Ġstir": 7756,
      "Ġmodule": 7757,
      "Ġprison": 7758,
      "lessly": 7759,
      "Ġassociation": 7760,
      "Ġvolunteer": 7761,
      "Ġeggs": 7762,
      "Ġsail": 7763,
      "Ġstuck": 7764,
      "Ġpreparing": 7765,
      "Ġdivision": 7766,
      "EG": 7767,
      "charge": 7768,
      "Ġgained": 7769,
      "adow": 7770,
      "Ġinstruction": 7771,
      "Ġhomeown": 7772,
      "Ġlegislation": 7773,
      "ĠInterest": 7774,
      "Ġyours": 7775,
      "ĠLLC": 7776,
      "Ġabuse": 7777,
      "ĠBritain": 7778,
      "Ġdishes": 7779,
      "ĠWithout": 7780,
      "Ġdirected": 7781,
      "Ġkeyword": 7782,
      "Ġphotographs": 7783,
      "raid": 7784,
      "ĠLine": 7785,
      "Ġlesson": 7786,
      "Ġintelligence": 7787,
      "Ġbars": 7788,
      "Ġlake": 7789,
      "ĠDom": 7790,
      "Ġalt": 7791,
      "ĠTele": 7792,
      "ĠEveryone": 7793,
      "pat": 7794,
      "Ġborrow": 7795,
      "Ġyoga": 7796,
      "ĠSenior": 7797,
      "ĠBit": 7798,
      "rive": 7799,
      "Ġsurprising": 7800,
      "Ġdemonstrate": 7801,
      "ĠFurthermore": 7802,
      "inity": 7803,
      "Ġpit": 7804,
      "ĠCult": 7805,
      "ĠBased": 7806,
      "Ġenroll": 7807,
      "being": 7808,
      "cons": 7809,
      "coin": 7810,
      "Ġterrit": 7811,
      "ĠLearning": 7812,
      "ĠIraq": 7813,
      "asure": 7814,
      "uma": 7815,
      "asting": 7816,
      "Ġfinest": 7817,
      "iki": 7818,
      "Ġentitled": 7819,
      "Ġcoal": 7820,
      "Ġbull": 7821,
      "Ġvenue": 7822,
      "cut": 7823,
      "Ġaer": 7824,
      "Ġpride": 7825,
      "Ġbone": 7826,
      "rage": 7827,
      "acious": 7828,
      "Ġdesigners": 7829,
      "ĠExam": 7830,
      "Ġdrinking": 7831,
      "Ġrising": 7832,
      "Ġhasn": 7833,
      "Ġspark": 7834,
      "Ġinteraction": 7835,
      "Ġoccurred": 7836,
      "Ġtissue": 7837,
      "Ġconvey": 7838,
      "Ġlets": 7839,
      "ĠKn": 7840,
      "Ġcompletion": 7841,
      "Ġstrange": 7842,
      "Ġchecked": 7843,
      "Ġoccurs": 7844,
      "ellectual": 7845,
      "Pro": 7846,
      "Ġdemands": 7847,
      "Ġroads": 7848,
      "Ġsubjects": 7849,
      "Ġoblig": 7850,
      "market": 7851,
      "Ġinitiative": 7852,
      "wan": 7853,
      "Ġfilling": 7854,
      "Ġgap": 7855,
      "Ġresidence": 7856,
      "Ġutilize": 7857,
      "abetes": 7858,
      "Ġstable": 7859,
      "Ġhes": 7860,
      "iana": 7861,
      "ĠDrive": 7862,
      "ìĿ": 7863,
      "Ġrecre": 7864,
      "Ġshed": 7865,
      "Ġnarr": 7866,
      "Ġphr": 7867,
      "Ġpossess": 7868,
      "anned": 7869,
      "Ġranking": 7870,
      "Ġbirds": 7871,
      "ĠHawai": 7872,
      "ĠBes": 7873,
      "Ġalive": 7874,
      "rame": 7875,
      "Ġlargely": 7876,
      "ĠCommon": 7877,
      "Ġfrequency": 7878,
      "bury": 7879,
      "Ġhat": 7880,
      "ĠFar": 7881,
      "Ġvessel": 7882,
      "ĠEX": 7883,
      "Ġtexture": 7884,
      "Ġdebut": 7885,
      "aniel": 7886,
      "ĠColorado": 7887,
      "Ġtox": 7888,
      "Ġimprovements": 7889,
      "Ġpromotion": 7890,
      "odge": 7891,
      "Ġgreatly": 7892,
      "Ġfeelings": 7893,
      "ĠMedicine": 7894,
      "Ġobjective": 7895,
      "ĠAgreement": 7896,
      "Ġmit": 7897,
      "ĠWas": 7898,
      "Ġshots": 7899,
      "Ġengaging": 7900,
      "Ġdrawn": 7901,
      "Ġrevolution": 7902,
      "ĠNO": 7903,
      "Ġfactory": 7904,
      "Ġbeneficial": 7905,
      "Ġexplan": 7906,
      "Ġrepresentative": 7907,
      "Ġflexibility": 7908,
      "ĠTR": 7909,
      "ership": 7910,
      "Ġgeneric": 7911,
      "Ġheaded": 7912,
      "ĠSydney": 7913,
      "Ġrepeated": 7914,
      "press": 7915,
      "ĠSM": 7916,
      "Ġpulled": 7917,
      "Ġwave": 7918,
      "ĠThink": 7919,
      "ĠAsk": 7920,
      "print": 7921,
      "Ġhydro": 7922,
      "Ġhate": 7923,
      "Ġgiant": 7924,
      "Ġsections": 7925,
      "Ġpublication": 7926,
      "Ġsubstantial": 7927,
      "ials": 7928,
      "Ġresponses": 7929,
      "ĠFollowing": 7930,
      "Ġgym": 7931,
      "ĠSup": 7932,
      "Ġwheels": 7933,
      "ĠKar": 7934,
      "ensus": 7935,
      "ĠPrivate": 7936,
      "Ġmole": 7937,
      "Ġneut": 7938,
      "ĠAsian": 7939,
      "Ġtalks": 7940,
      "Ġpolitics": 7941,
      "ĠCasino": 7942,
      "sue": 7943,
      "Ñĸ": 7944,
      "Ġpul": 7945,
      "Ġbab": 7946,
      "Ġstages": 7947,
      "Ġbuff": 7948,
      "Ġkeys": 7949,
      "htt": 7950,
      "rible": 7951,
      "ĠRights": 7952,
      "ampion": 7953,
      "Ġexplains": 7954,
      "Ġemails": 7955,
      "ĠSE": 7956,
      "ĠAff": 7957,
      "Ġbeds": 7958,
      "Ġappointed": 7959,
      "ĠAnnual": 7960,
      "Ġrapidly": 7961,
      "ĠJoseph": 7962,
      "atellite": 7963,
      "An": 7964,
      "Ġlift": 7965,
      "ĠCapt": 7966,
      "Ġseed": 7967,
      "Ġentering": 7968,
      "including": 7969,
      "atin": 7970,
      "ĠDan": 7971,
      "bourne": 7972,
      "Ġreception": 7973,
      "stra": 7974,
      "Ġriding": 7975,
      "ĠCharles": 7976,
      "Ġgate": 7977,
      "Ġprayer": 7978,
      "Ġequivalent": 7979,
      "Ġconvenience": 7980,
      "pire": 7981,
      "ĠTer": 7982,
      "imal": 7983,
      "iac": 7984,
      "otive": 7985,
      "igen": 7986,
      "ĠOak": 7987,
      "aze": 7988,
      "Ġdrinks": 7989,
      "chester": 7990,
      "ĠSquare": 7991,
      "owers": 7992,
      "Ġsecondary": 7993,
      "ĠAriz": 7994,
      "rick": 7995,
      "iform": 7996,
      "Ġgrace": 7997,
      "Ġinvestments": 7998,
      "Ġgentle": 7999,
      "una": 8000,
      "ĠEvent": 8001,
      "Ġalter": 8002,
      "Ġintroduce": 8003,
      "Ġarrival": 8004,
      "Ġevaluate": 8005,
      "ĠDivision": 8006,
      "itate": 8007,
      "Ġmood": 8008,
      "Ġdual": 8009,
      "ruption": 8010,
      "Ġliterature": 8011,
      "ĠGeorgia": 8012,
      "Ġdisplays": 8013,
      "ĠNatural": 8014,
      "Ġjun": 8015,
      "Ġspots": 8016,
      "Ġinstitution": 8017,
      "iti": 8018,
      "Ġhiring": 8019,
      "char": 8020,
      "unicip": 8021,
      "ĠKim": 8022,
      "Ġaccommodation": 8023,
      "ĠGallery": 8024,
      "cm": 8025,
      "je": 8026,
      "uis": 8027,
      "Ġlib": 8028,
      "ĠHold": 8029,
      "ĠProcess": 8030,
      "Ġautomatic": 8031,
      "Ġlayers": 8032,
      "Ġanxiety": 8033,
      "amber": 8034,
      "ĠDue": 8035,
      "Ġplot": 8036,
      "iscal": 8037,
      "Ġacquis": 8038,
      "Ġwarranty": 8039,
      "Ġfest": 8040,
      "Ġbub": 8041,
      "Ġreact": 8042,
      "ctic": 8043,
      "Ġcouncil": 8044,
      "Ġwithdraw": 8045,
      "Ġtill": 8046,
      "onso": 8047,
      "Ġcomplim": 8048,
      "ĠiOS": 8049,
      "AY": 8050,
      "Ġdeeper": 8051,
      "ĠAmong": 8052,
      "ĠImage": 8053,
      "Ġcelebration": 8054,
      "DP": 8055,
      "Ġparticipation": 8056,
      "Ġbroadcast": 8057,
      "ĠAdministration": 8058,
      "Ġspray": 8059,
      "Ġprovision": 8060,
      "Ġorganisation": 8061,
      "Ġfloors": 8062,
      "Ġafraid": 8063,
      "Ġtemperatures": 8064,
      "Ġinitially": 8065,
      "Ġtelephone": 8066,
      "ĠConsult": 8067,
      "Ġera": 8068,
      "remony": 8069,
      "Ġfascin": 8070,
      "Ġunderstood": 8071,
      "making": 8072,
      "ĠPop": 8073,
      "ĠDog": 8074,
      "Ġedit": 8075,
      "Ġstronger": 8076,
      "ĠStudio": 8077,
      "days": 8078,
      "ih": 8079,
      "Ġhaz": 8080,
      "ateful": 8081,
      "Ġstudied": 8082,
      "Ġaircraft": 8083,
      "Ġcircle": 8084,
      "ĠPolicy": 8085,
      "Ġpitch": 8086,
      "Ġstrongly": 8087,
      "ĠCatholic": 8088,
      "Ġwise": 8089,
      "agen": 8090,
      "Ġpocket": 8091,
      "Ġski": 8092,
      "Ġbuyer": 8093,
      "vironments": 8094,
      "ESS": 8095,
      "cific": 8096,
      "Ġtomat": 8097,
      "oof": 8098,
      "ĠAsh": 8099,
      "Ġfaces": 8100,
      "gments": 8101,
      "Ġhook": 8102,
      "ĠBh": 8103,
      "Ġcomprom": 8104,
      "acon": 8105,
      "Ġengines": 8106,
      "Ġfaced": 8107,
      "ĠStudent": 8108,
      "Ġpollut": 8109,
      "gorith": 8110,
      "Ġoperated": 8111,
      "ĠPhilipp": 8112,
      "Ġtired": 8113,
      "ĠCli": 8114,
      "Ġneither": 8115,
      "Ġclimb": 8116,
      "Ġscored": 8117,
      "Ġboot": 8118,
      "elly": 8119,
      "ĠUSB": 8120,
      "ĠMinistry": 8121,
      "zed": 8122,
      "ifting": 8123,
      "iances": 8124,
      "ĠEmploy": 8125,
      "limited": 8126,
      "Ġadvantages": 8127,
      "isms": 8128,
      "ĠSav": 8129,
      "ĠMah": 8130,
      "ĠJohnson": 8131,
      "Ġtalked": 8132,
      "ĠDar": 8133,
      "teen": 8134,
      "ĠUr": 8135,
      "Ġunknown": 8136,
      "Ġthemes": 8137,
      "Ġshell": 8138,
      "ĠContin": 8139,
      "Ġimplemented": 8140,
      "cal": 8141,
      "ĠTool": 8142,
      "ĠKind": 8143,
      "ificial": 8144,
      "ĠArmy": 8145,
      "Ġharder": 8146,
      "ĠMotor": 8147,
      "po": 8148,
      "Ġbills": 8149,
      "ĠDO": 8150,
      "Ġtact": 8151,
      "nders": 8152,
      "orce": 8153,
      "Ġbid": 8154,
      "ĠWr": 8155,
      "Ġtwenty": 8156,
      "ĠBelow": 8157,
      "ifer": 8158,
      "ĠFoot": 8159,
      "Ġuncom": 8160,
      "Ġfundamental": 8161,
      "Ġspectac": 8162,
      "Ġgranted": 8163,
      "Ġjuice": 8164,
      "BI": 8165,
      "ashed": 8166,
      "usive": 8167,
      "ĠPak": 8168,
      "ĠBE": 8169,
      "Ġorient": 8170,
      "Ġloose": 8171,
      "ĠCloud": 8172,
      "criptions": 8173,
      "bro": 8174,
      "Ġlie": 8175,
      "ĠChoose": 8176,
      "Ġpeak": 8177,
      "rooms": 8178,
      "Ġtutorial": 8179,
      "ĠStation": 8180,
      "Ġdefine": 8181,
      "Ġvisitor": 8182,
      "Ġexistence": 8183,
      "ĠMrs": 8184,
      "ĠSimply": 8185,
      "Ġdurable": 8186,
      "Ġenthusi": 8187,
      "Ġcompensation": 8188,
      "ãĥ": 8189,
      "ali": 8190,
      "icious": 8191,
      "Ġlies": 8192,
      "ĠSem": 8193,
      "urities": 8194,
      "ĠPo": 8195,
      "Ġediting": 8196,
      "Ġregulatory": 8197,
      "UM": 8198,
      "oper": 8199,
      "Ġclock": 8200,
      "Ġforgot": 8201,
      "otal": 8202,
      "olt": 8203,
      "lude": 8204,
      "Ġremained": 8205,
      "anna": 8206,
      "Ġrepresented": 8207,
      "Ġbaking": 8208,
      "Ġisol": 8209,
      "ĠAlp": 8210,
      "ĠMat": 8211,
      "acher": 8212,
      "Ġvisits": 8213,
      "Ġcalm": 8214,
      "Ġtablet": 8215,
      "ĠConsider": 8216,
      "sen": 8217,
      "Ġtone": 8218,
      "Ġpatch": 8219,
      "Ġhack": 8220,
      "ĠHolly": 8221,
      "Ġcrypt": 8222,
      "Ġconfiguration": 8223,
      "ĠCopy": 8224,
      "Ġacquire": 8225,
      "cur": 8226,
      "ĠPen": 8227,
      "Ġleague": 8228,
      "Ġboards": 8229,
      "Ġexploring": 8230,
      "Ġcatalog": 8231,
      "Ġsatisfied": 8232,
      "ILL": 8233,
      "mble": 8234,
      "ĠJac": 8235,
      "Ġwanting": 8236,
      "ĠLeg": 8237,
      "Ġmodified": 8238,
      "CD": 8239,
      "Ġtile": 8240,
      "Ġfinger": 8241,
      "Ġstamp": 8242,
      "ĠOil": 8243,
      "mercial": 8244,
      "Ġdeveloper": 8245,
      "Ġestimate": 8246,
      "Ġworkshops": 8247,
      "Ġperiods": 8248,
      "Ġaims": 8249,
      "isdom": 8250,
      "ifully": 8251,
      "Ġchairs": 8252,
      "Ġfalling": 8253,
      "Ġcontribution": 8254,
      "Ġpounds": 8255,
      "Ġgod": 8256,
      "ĠStone": 8257,
      "Ġdecent": 8258,
      "amsung": 8259,
      "atile": 8260,
      "ashes": 8261,
      "pson": 8262,
      "Ġnights": 8263,
      "Ġclosing": 8264,
      "ĠSafety": 8265,
      "hr": 8266,
      "Ġadj": 8267,
      "ĠJenn": 8268,
      "Ġcontinuous": 8269,
      "RL": 8270,
      "Ġsex": 8271,
      "Ġflights": 8272,
      "Ġhoriz": 8273,
      "Ġsubsid": 8274,
      "books": 8275,
      "ko": 8276,
      "Ġdad": 8277,
      "Ġlaser": 8278,
      "sell": 8279,
      "empl": 8280,
      "VER": 8281,
      "Ġmedication": 8282,
      "Ġviewing": 8283,
      "ĠToronto": 8284,
      "Ġsculpt": 8285,
      "Ġsuspect": 8286,
      "Ġbedrooms": 8287,
      "ĠAvailable": 8288,
      "%,": 8289,
      "oices": 8290,
      "Ġvert": 8291,
      "oned": 8292,
      "Ġchest": 8293,
      "Ġphilosophy": 8294,
      "Ġdowntown": 8295,
      "Ġtie": 8296,
      "ĠFact": 8297,
      "umer": 8298,
      "Ġlanguages": 8299,
      ".'": 8300,
      "PM": 8301,
      "ĠMother": 8302,
      "Ġseeds": 8303,
      "Ġconsent": 8304,
      "Ġequity": 8305,
      "engers": 8306,
      "ĠOntario": 8307,
      "rat": 8308,
      "inet": 8309,
      "Ġflying": 8310,
      "Ġending": 8311,
      "Ġpacked": 8312,
      "Ġfarmers": 8313,
      "bell": 8314,
      "heast": 8315,
      "Ġfiber": 8316,
      "ppy": 8317,
      "Ġexists": 8318,
      "Ġenvironments": 8319,
      "ccer": 8320,
      "Ġpermit": 8321,
      "Ġopens": 8322,
      "tail": 8323,
      "Ġdiversity": 8324,
      "ĠMember": 8325,
      "Ġru": 8326,
      "Ġfocuses": 8327,
      "ĠSteel": 8328,
      "Ġquotes": 8329,
      "Ġtradem": 8330,
      "sized": 8331,
      "ĠHun": 8332,
      "ĠKids": 8333,
      "Ġfindings": 8334,
      "Ġexamination": 8335,
      "Ġcoupon": 8336,
      "ĠArizona": 8337,
      "Ġimper": 8338,
      "eping": 8339,
      "ĠGuys": 8340,
      "Ġeliminate": 8341,
      "fall": 8342,
      "ĠField": 8343,
      "Ġformation": 8344,
      "Ġcreativity": 8345,
      "ĠPsych": 8346,
      "ifier": 8347,
      "Ġsegment": 8348,
      "Ġpepper": 8349,
      "Ġacting": 8350,
      "Ġemployers": 8351,
      "ĠWorking": 8352,
      "ĠMoreover": 8353,
      "Ġwarning": 8354,
      "ige": 8355,
      "ĠMs": 8356,
      "Ġcock": 8357,
      "ĠExcell": 8358,
      "Ġobjectives": 8359,
      "Ġconcert": 8360,
      "Ġratio": 8361,
      "ĠFrancisco": 8362,
      "Ġsophist": 8363,
      "Ar": 8364,
      "Ġpp": 8365,
      "ĠWant": 8366,
      "Ġclicking": 8367,
      "Ġsolo": 8368,
      "ĠAirport": 8369,
      "ĠMuslim": 8370,
      "AV": 8371,
      "hot": 8372,
      "Ġham": 8373,
      "Ġfinds": 8374,
      "ĠChem": 8375,
      "Ġinventory": 8376,
      "Ġillegal": 8377,
      "Ġventure": 8378,
      "Ġacquired": 8379,
      "ĠSale": 8380,
      "ckets": 8381,
      "duction": 8382,
      "Ġequally": 8383,
      "ĠEverything": 8384,
      "Ġgaming": 8385,
      "lyn": 8386,
      "Ġexterior": 8387,
      "sole": 8388,
      "Ġensures": 8389,
      "ĠAgency": 8390,
      "Ġcord": 8391,
      "Ġstability": 8392,
      "ĠHR": 8393,
      "Ġpubl": 8394,
      "Ġprize": 8395,
      "Ġadopted": 8396,
      "ĠVillage": 8397,
      "uten": 8398,
      "ĠMap": 8399,
      "pled": 8400,
      "Ġdrain": 8401,
      "Ġinjured": 8402,
      "Ġdil": 8403,
      "lections": 8404,
      "Ġplain": 8405,
      "ervations": 8406,
      "issions": 8407,
      "Ġrefriger": 8408,
      "ĠAutom": 8409,
      "Ġbrilliant": 8410,
      "tical": 8411,
      "inst": 8412,
      "aya": 8413,
      "ĠDun": 8414,
      "Ġalgorith": 8415,
      "Ġlocks": 8416,
      "aka": 8417,
      "cycle": 8418,
      "Ġhel": 8419,
      "Ġmac": 8420,
      "ĠMess": 8421,
      "terest": 8422,
      "Ġapplies": 8423,
      "Ġraising": 8424,
      "Ġinvite": 8425,
      "Ġevolution": 8426,
      "Ġdeeply": 8427,
      "Ġmountains": 8428,
      "Ġpromoting": 8429,
      "ila": 8430,
      "Ġalign": 8431,
      "Ġjur": 8432,
      "Ġrecruit": 8433,
      "Ġvalve": 8434,
      "ĠRepair": 8435,
      "mg": 8436,
      "Ġgene": 8437,
      "Ġchampions": 8438,
      "Ġsheets": 8439,
      "Ġpersonnel": 8440,
      "Ġattending": 8441,
      "Ġdocumentation": 8442,
      "Con": 8443,
      "ĠCivil": 8444,
      "adium": 8445,
      "Ġsuffe": 8446,
      "ĠAng": 8447,
      "Ġattitude": 8448,
      "Ġreturning": 8449,
      "Ġemployed": 8450,
      "Ġaccounting": 8451,
      "ĠCountry": 8452,
      "Ġtrusted": 8453,
      "Ġdecrease": 8454,
      "ĠCut": 8455,
      "ĠPict": 8456,
      "Ġinsights": 8457,
      "Ġcompatible": 8458,
      "iology": 8459,
      "ĠLi": 8460,
      "ĠEasy": 8461,
      "Ġmaps": 8462,
      "ĠShort": 8463,
      "Ġintention": 8464,
      "Ġfocusing": 8465,
      "Ġreaching": 8466,
      "acter": 8467,
      "Ġbreaking": 8468,
      "Ġsen": 8469,
      "orses": 8470,
      "Ġimportantly": 8471,
      "ĠSpace": 8472,
      "Ġcabinet": 8473,
      "Ġaccordance": 8474,
      "Com": 8475,
      "cor": 8476,
      "ĠLas": 8477,
      "earing": 8478,
      "ĠVi": 8479,
      "Ġscrew": 8480,
      "ĠBell": 8481,
      "umni": 8482,
      "bage": 8483,
      "Ġdipl": 8484,
      "ĠCou": 8485,
      "ĠDJ": 8486,
      "ĠProducts": 8487,
      "ĠLimited": 8488,
      "ĠKorea": 8489,
      "Ġorganisations": 8490,
      "Ġmild": 8491,
      "Ġlatter": 8492,
      "ĠSwed": 8493,
      "uous": 8494,
      "Ġspir": 8495,
      "Ġspecialists": 8496,
      "Ġwondering": 8497,
      "hyd": 8498,
      "Ġcasual": 8499,
      "Ġmechanical": 8500,
      "Ġrubber": 8501,
      "foot": 8502,
      "Ġlens": 8503,
      "uru": 8504,
      "ĠLic": 8505,
      "osa": 8506,
      "Ġrespective": 8507,
      "And": 8508,
      "alysis": 8509,
      "Ġdess": 8510,
      "Ġanymore": 8511,
      "ĠWithin": 8512,
      "ĠCancer": 8513,
      "Ġstatistics": 8514,
      "sis": 8515,
      "tons": 8516,
      "aters": 8517,
      "ĠEastern": 8518,
      "Ġabund": 8519,
      "Ġamongst": 8520,
      "ĠModel": 8521,
      "Ġcolleagues": 8522,
      "Ġwaters": 8523,
      "Ġwatched": 8524,
      "Ġresolve": 8525,
      "iour": 8526,
      "Ġstood": 8527,
      "ĠLabor": 8528,
      "ĠOcean": 8529,
      "Ġamen": 8530,
      "Ġclaimed": 8531,
      "Ġinitiatives": 8532,
      "name": 8533,
      "Ġtherap": 8534,
      "quis": 8535,
      "ĠNC": 8536,
      "ĠStan": 8537,
      "ĠRecent": 8538,
      "Ġreject": 8539,
      "etch": 8540,
      "ĠPu": 8541,
      "Ġseam": 8542,
      "ĠGro": 8543,
      "Ġcloth": 8544,
      "Ġspa": 8545,
      "Ġracing": 8546,
      "Ġproductivity": 8547,
      "ĠEstate": 8548,
      "Ġconclusion": 8549,
      "Pl": 8550,
      "pons": 8551,
      "step": 8552,
      "ĠRun": 8553,
      "Ġplane": 8554,
      "Ġrefresh": 8555,
      "ĠCarl": 8556,
      "Ġtalented": 8557,
      "encing": 8558,
      "Ġhub": 8559,
      "Ġresid": 8560,
      "Ġheading": 8561,
      "UL": 8562,
      "Ġsouthern": 8563,
      "Ġstainless": 8564,
      "ĠRub": 8565,
      "Ġshirt": 8566,
      "Ġchildhood": 8567,
      "ĠContract": 8568,
      "ji": 8569,
      "sa": 8570,
      "Ġtours": 8571,
      "onda": 8572,
      "Ġsafely": 8573,
      "ĠCorporation": 8574,
      "Ġuniversities": 8575,
      "ĠBul": 8576,
      "izz": 8577,
      "Ġcheaper": 8578,
      "graduate": 8579,
      "Ġox": 8580,
      "ĠNic": 8581,
      "Ġcurriculum": 8582,
      "ĠRegard": 8583,
      "Ġgender": 8584,
      "visor": 8585,
      "ceived": 8586,
      "ĠHou": 8587,
      "Ġparticipating": 8588,
      "ĠPartners": 8589,
      "Ġprotocol": 8590,
      "ĠRay": 8591,
      "Ġformula": 8592,
      "Ġantib": 8593,
      "flow": 8594,
      "Ġtemplates": 8595,
      "Ġinspection": 8596,
      "ðŁ": 8597,
      "ĠRequ": 8598,
      "ĠSecretary": 8599,
      "swe": 8600,
      "Ġcul": 8601,
      "aska": 8602,
      "ludes": 8603,
      "Ġconscious": 8604,
      "ĠComb": 8605,
      "Ġdesktop": 8606,
      "Ġfing": 8607,
      "Ġbunch": 8608,
      "Ġworship": 8609,
      "Ġelected": 8610,
      "Ġcontracts": 8611,
      "Ġmerely": 8612,
      "cia": 8613,
      "epend": 8614,
      "ĠIM": 8615,
      "oli": 8616,
      "Ġdamages": 8617,
      "Ġownership": 8618,
      "ĠIce": 8619,
      "ĠSher": 8620,
      "ĠPrime": 8621,
      "Ġreligion": 8622,
      "ĠCase": 8623,
      "ĠBan": 8624,
      "Ġchips": 8625,
      "Ġlaid": 8626,
      "ĠCool": 8627,
      "ĠFather": 8628,
      "Ġbrush": 8629,
      "ĠGovern": 8630,
      "Ġconcentration": 8631,
      "Ġconsequences": 8632,
      "alt": 8633,
      "Ġalarm": 8634,
      "Ġpackaging": 8635,
      "There": 8636,
      "Ġrelating": 8637,
      "Ġpatio": 8638,
      "Ġpainted": 8639,
      "gent": 8640,
      "mers": 8641,
      "ĠCand": 8642,
      "Ġbranch": 8643,
      "Ġprofessor": 8644,
      "Ġtitles": 8645,
      "Ġcampaigns": 8646,
      "athered": 8647,
      "Ġfruits": 8648,
      "inery": 8649,
      "ĠMD": 8650,
      "ĠTheatre": 8651,
      "Ġovernight": 8652,
      "Ġsupplied": 8653,
      "Ġgraphic": 8654,
      "Ġweren": 8655,
      "ĠDrag": 8656,
      "ĠKent": 8657,
      "Ġcomplement": 8658,
      "axy": 8659,
      "ĠInstall": 8660,
      "Ġcopyright": 8661,
      "adel": 8662,
      "ĠHas": 8663,
      "Ġperm": 8664,
      "ĠPrev": 8665,
      "Ġopinions": 8666,
      "Ġmistake": 8667,
      "ĠCustomer": 8668,
      "TE": 8669,
      "ĠCC": 8670,
      "ĠLevel": 8671,
      "ĠPlant": 8672,
      "Ġfrustr": 8673,
      "inois": 8674,
      "Ġstruggling": 8675,
      "Ġdough": 8676,
      "oted": 8677,
      "ĠDVD": 8678,
      "aha": 8679,
      "Ġceremony": 8680,
      "Ġprivile": 8681,
      "Ġgolden": 8682,
      "Ġpassionate": 8683,
      "NC": 8684,
      "ped": 8685,
      "ĠEmer": 8686,
      "ĠUk": 8687,
      "assion": 8688,
      "ĠViet": 8689,
      "Ġsmoke": 8690,
      "Ġgrateful": 8691,
      "theless": 8692,
      "Ġcontractors": 8693,
      "Ġsmartphone": 8694,
      "stein": 8695,
      "Ġunusual": 8696,
      "ĠNiger": 8697,
      "Ġcolon": 8698,
      "Ġmuscles": 8699,
      "UD": 8700,
      "Ġcontractor": 8701,
      "ĠRegist": 8702,
      "Ġarrangements": 8703,
      "Ġsuffer": 8704,
      "Ġweapons": 8705,
      "Ġtube": 8706,
      "Ġsed": 8707,
      "ĠRon": 8708,
      "ĠNAS": 8709,
      "Ġreserved": 8710,
      "obe": 8711,
      "Ġadministrative": 8712,
      "Ġsacr": 8713,
      "Ġought": 8714,
      "letter": 8715,
      "Ġcontributions": 8716,
      "Ġsought": 8717,
      "Ġcompete": 8718,
      "ĠPrior": 8719,
      "Ġthousand": 8720,
      "ĠDaniel": 8721,
      "Ġcompact": 8722,
      "itative": 8723,
      "amel": 8724,
      "Ġrhy": 8725,
      "Ġministry": 8726,
      "Ġstrike": 8727,
      "Ġpowers": 8728,
      "Ġconstructed": 8729,
      "ĠCapital": 8730,
      "ĠCreate": 8731,
      "TR": 8732,
      "ĠBM": 8733,
      "Ġouts": 8734,
      "ĠCollection": 8735,
      "Ġmeasured": 8736,
      "screen": 8737,
      "Ġreveal": 8738,
      "Ġcher": 8739,
      "sts": 8740,
      "ador": 8741,
      "Ġseal": 8742,
      "Ġimpression": 8743,
      "Ġreceipt": 8744,
      "Ġkeyboard": 8745,
      "ĠInterior": 8746,
      "power": 8747,
      "ĠCru": 8748,
      "Ġranging": 8749,
      "awa": 8750,
      "Ġintellectual": 8751,
      "Ġheavily": 8752,
      "Ġax": 8753,
      "isa": 8754,
      "ĠTay": 8755,
      "Ġgrey": 8756,
      "Ġindicated": 8757,
      "Ġexamine": 8758,
      "ĠPerfect": 8759,
      "Ġmistakes": 8760,
      "giving": 8761,
      "war": 8762,
      "ifi": 8763,
      "Ġalloc": 8764,
      "Ġovercome": 8765,
      "Ġlocally": 8766,
      "Ġportable": 8767,
      "ĠBroad": 8768,
      "ĠFox": 8769,
      "Ġbroke": 8770,
      "Ġdirections": 8771,
      "onsored": 8772,
      "wo": 8773,
      "Ġadmin": 8774,
      "ĠForce": 8775,
      "Ġputs": 8776,
      "Ġrarely": 8777,
      "ĠScotland": 8778,
      "Ġaest": 8779,
      "ĠTick": 8780,
      "Ġbeans": 8781,
      "Ġindoor": 8782,
      "ĠâĢĭ": 8783,
      "Ġperformances": 8784,
      "ĠQuick": 8785,
      "ĠBridge": 8786,
      "month": 8787,
      "ĠCurrently": 8788,
      "hour": 8789,
      "ĠSamsung": 8790,
      "Ġnetworking": 8791,
      "ĠJustice": 8792,
      "Ġstrengthen": 8793,
      "ĠLew": 8794,
      "Ġstayed": 8795,
      "ĠGolden": 8796,
      "FA": 8797,
      "HA": 8798,
      "Ġsemin": 8799,
      "Ġoverl": 8800,
      "Ġoverse": 8801,
      "ĠShare": 8802,
      "Ġsurely": 8803,
      "Ġoppon": 8804,
      "ĠRepublican": 8805,
      "vity": 8806,
      "xygen": 8807,
      "ports": 8808,
      "Ġpor": 8809,
      "arat": 8810,
      "ordinary": 8811,
      "Ġinvesting": 8812,
      "Ġescape": 8813,
      "Ġentrepreneurs": 8814,
      "iary": 8815,
      "Ġhanging": 8816,
      "eties": 8817,
      "ĠAvenue": 8818,
      "ucky": 8819,
      "Ġaccompan": 8820,
      "Ġphenomen": 8821,
      "Ġvoltage": 8822,
      "employ": 8823,
      "Ġknock": 8824,
      "Ġsurge": 8825,
      "Ġsignals": 8826,
      "Ġcourts": 8827,
      "Ġfraud": 8828,
      "Ġvendors": 8829,
      "Ġsuite": 8830,
      "ghan": 8831,
      "Ġdelivers": 8832,
      "Ġrepresentatives": 8833,
      "Ġcameras": 8834,
      "vit": 8835,
      "Ã¢": 8836,
      "Ġft": 8837,
      "ĠSat": 8838,
      "ĠSave": 8839,
      "ima": 8840,
      "section": 8841,
      "ĠLA": 8842,
      "Ġdesigning": 8843,
      "AND": 8844,
      "ders": 8845,
      "oom": 8846,
      "ĠSD": 8847,
      "uset": 8848,
      "olis": 8849,
      "ĠBand": 8850,
      "ĠLind": 8851,
      "Ġpossibilities": 8852,
      "Ġlawn": 8853,
      "Ġdistributed": 8854,
      "ascular": 8855,
      "Ġlandscap": 8856,
      "ĠĠĠĠ": 8857,
      "TP": 8858,
      "ĠTreat": 8859,
      "Ġaccum": 8860,
      "athan": 8861,
      "Ġcurrency": 8862,
      "Ġtranslation": 8863,
      "Ġduties": 8864,
      "ĠTa": 8865,
      "Ġangle": 8866,
      "Ġwashing": 8867,
      "ĠNin": 8868,
      "Ġabilities": 8869,
      "Ġinstruments": 8870,
      "Ġrepeat": 8871,
      "Ġfoam": 8872,
      "Ġsorry": 8873,
      "Ġfiscal": 8874,
      "Ġprime": 8875,
      "Ġquantity": 8876,
      "ĠStandard": 8877,
      "TER": 8878,
      "ordan": 8879,
      "Ġoperator": 8880,
      "Ġhearts": 8881,
      "Ġengineers": 8882,
      "Ġordinary": 8883,
      "Ġshapes": 8884,
      "fers": 8885,
      "iate": 8886,
      "Ġwider": 8887,
      "ĠAction": 8888,
      "ĠALL": 8889,
      "ĠCredit": 8890,
      "that": 8891,
      "Ġloyal": 8892,
      "ĠBlu": 8893,
      "ĠArchitect": 8894,
      "Ġmirror": 8895,
      "Ġtrigger": 8896,
      "edge": 8897,
      "Ġhits": 8898,
      "style": 8899,
      "ĠLyn": 8900,
      "Ġrust": 8901,
      "ĠChapter": 8902,
      "Ġoverview": 8903,
      "ĠAlways": 8904,
      "Ġdifficulty": 8905,
      "Ġsettlement": 8906,
      "Ġfewer": 8907,
      "Ġcooling": 8908,
      "Ġtargeted": 8909,
      "Ġnursing": 8910,
      "Ġgrocer": 8911,
      "rets": 8912,
      "ĠDE": 8913,
      "Ġtwist": 8914,
      "Ġflaw": 8915,
      "Ġfabulous": 8916,
      "Ġrobust": 8917,
      "ĠIndustry": 8918,
      "ĠBC": 8919,
      "Ġconventional": 8920,
      "Ġsees": 8921,
      "Ġincent": 8922,
      "Ġfinancing": 8923,
      "ĠColumbia": 8924,
      "GA": 8925,
      "Ð¡": 8926,
      "ulator": 8927,
      "Ġblogs": 8928,
      "Ġdiagnosis": 8929,
      "ĠBeautiful": 8930,
      "ĠCamer": 8931,
      "ĠGreek": 8932,
      "Ġcoloring": 8933,
      "Ġfinishing": 8934,
      "Ġspecialized": 8935,
      "burgh": 8936,
      "ĠCreek": 8937,
      "ĠRail": 8938,
      "emed": 8939,
      "Ġlegit": 8940,
      "Ġencounter": 8941,
      "Ġemotions": 8942,
      "Ġscenes": 8943,
      "Ġsubsequent": 8944,
      "Sc": 8945,
      "Ġappl": 8946,
      "Ġentert": 8947,
      "Ġconsistently": 8948,
      "Ġcollections": 8949,
      "uty": 8950,
      "Ġhen": 8951,
      "aret": 8952,
      "Ġreprodu": 8953,
      "Ġgenerations": 8954,
      "Ġdiscussions": 8955,
      "Ġfalls": 8956,
      "Don": 8957,
      "isd": 8958,
      "icity": 8959,
      "ĠRod": 8960,
      "ĠEN": 8961,
      "Ġenhanced": 8962,
      "vals": 8963,
      "kel": 8964,
      "regon": 8965,
      "Ġclubs": 8966,
      "Ġalleged": 8967,
      "Ġnom": 8968,
      "ĠBad": 8969,
      "ĠDream": 8970,
      "Ġaband": 8971,
      "ĠKat": 8972,
      "Ġshoulder": 8973,
      "ML": 8974,
      "No": 8975,
      "RC": 8976,
      "iot": 8977,
      "Ġprohib": 8978,
      "estone": 8979,
      "Ġresident": 8980,
      "Ġprinter": 8981,
      "Ġsalad": 8982,
      "ĠFront": 8983,
      "zzle": 8984,
      "Ġaccommodate": 8985,
      "Ġcopies": 8986,
      "Ġenforcement": 8987,
      "ĠMeanwhile": 8988,
      "TV": 8989,
      "bow": 8990,
      "makers": 8991,
      "pany": 8992,
      "Ġwins": 8993,
      "Ġbat": 8994,
      "iffe": 8995,
      "Ġcontents": 8996,
      "Ġprescription": 8997,
      "Ġanniversary": 8998,
      "Ġgram": 8999,
      "ĠFa": 9000,
      "Ġproduces": 9001,
      "ffective": 9002,
      "Ġconvin": 9003,
      "Ġgathering": 9004,
      "ĠRadio": 9005,
      "Ġore": 9006,
      "Ġbold": 9007,
      "Ġnorthern": 9008,
      "ĠAve": 9009,
      "ĠDI": 9010,
      "angle": 9011,
      "Ġactively": 9012,
      "Ġaddressed": 9013,
      "Ġvirtually": 9014,
      "ĠProtection": 9015,
      "Ġwake": 9016,
      "ĠFall": 9017,
      "abling": 9018,
      "Ġreply": 9019,
      "Ġbeautifully": 9020,
      "ĠUser": 9021,
      "ĠSenate": 9022,
      "Ġcooperation": 9023,
      "ho": 9024,
      "Ġdiabetes": 9025,
      "Ġmargin": 9026,
      "Ġreviewed": 9027,
      "ĠLarge": 9028,
      "asted": 9029,
      "rug": 9030,
      "ĠVen": 9031,
      "Ġchecks": 9032,
      "Ġconnecting": 9033,
      "Ġemerging": 9034,
      "urious": 9035,
      "udi": 9036,
      "Ġdrives": 9037,
      "Ġglobe": 9038,
      "Ġattempts": 9039,
      "Ġmeaningful": 9040,
      "Ġexpanded": 9041,
      "ĠStrateg": 9042,
      "ĠExpress": 9043,
      "Ġscratch": 9044,
      "pir": 9045,
      "wall": 9046,
      "eness": 9047,
      "Ġsear": 9048,
      "iley": 9049,
      "Ġburning": 9050,
      "Be": 9051,
      "nels": 9052,
      "Ġï¿½": 9053,
      "ĠCS": 9054,
      "ounded": 9055,
      "Ġlistings": 9056,
      "ERE": 9057,
      "ĠIllinois": 9058,
      "ĠEver": 9059,
      "cribed": 9060,
      "Ġmatching": 9061,
      "Ġsurvive": 9062,
      "ĠForest": 9063,
      "pot": 9064,
      "Ġbatt": 9065,
      "Ġdies": 9066,
      "Ġhoney": 9067,
      "ouses": 9068,
      "Ġroots": 9069,
      "Ġoperational": 9070,
      "Ġcuts": 9071,
      "doors": 9072,
      "Ġholes": 9073,
      "Ġdiscounts": 9074,
      "Ġarrangement": 9075,
      "asm": 9076,
      "Ġyards": 9077,
      "racy": 9078,
      "Ġheaven": 9079,
      "Ġshade": 9080,
      "ĠOK": 9081,
      "Ġminister": 9082,
      "Ġassistant": 9083,
      "Ġessentially": 9084,
      "Ġremoving": 9085,
      "Ġpleasant": 9086,
      "ĠVegas": 9087,
      "Ġvictims": 9088,
      "Ġsuddenly": 9089,
      "ĠSciences": 9090,
      "My": 9091,
      "ols": 9092,
      "ĠPoly": 9093,
      "ĠUnivers": 9094,
      "Ġtrem": 9095,
      "Ġbalanced": 9096,
      "Ġdescribes": 9097,
      "Ġtargets": 9098,
      "Ġhighlights": 9099,
      "Ġgovernments": 9100,
      "ĠAdvanced": 9101,
      "star": 9102,
      "ĠSound": 9103,
      "ĠNav": 9104,
      "Ġgrounds": 9105,
      "Ġdepression": 9106,
      "Ġadvertise": 9107,
      "Ġpicking": 9108,
      "ĠChange": 9109,
      "Ġdecline": 9110,
      "Ġinstantly": 9111,
      "Ġlosses": 9112,
      "ĠBrother": 9113,
      "Ġbands": 9114,
      "ĠRs": 9115,
      "oding": 9116,
      "bered": 9117,
      "Ġefficiently": 9118,
      "Ġsituated": 9119,
      "Ġsemi": 9120,
      "lined": 9121,
      "run": 9122,
      "Ġfounder": 9123,
      "ĠHost": 9124,
      "Ġsurve": 9125,
      "ounge": 9126,
      "igs": 9127,
      "ĠDoc": 9128,
      "ĠLuc": 9129,
      "ĠOwn": 9130,
      "ĠManufact": 9131,
      "Ġtournament": 9132,
      "Ġuncertain": 9133,
      "Ġpilot": 9134,
      "Ġspectacular": 9135,
      ".;": 9136,
      "Ġcrown": 9137,
      "child": 9138,
      "ĠBring": 9139,
      "Ġcoaching": 9140,
      "Ġflooring": 9141,
      "Ġaimed": 9142,
      "jection": 9143,
      "Ġexpense": 9144,
      "Ġresulted": 9145,
      "Ġhosts": 9146,
      "grade": 9147,
      "Ġfluid": 9148,
      "Ġtoilet": 9149,
      "inyl": 9150,
      "Ġevil": 9151,
      "arents": 9152,
      "Ġgenetic": 9153,
      "Ġnutri": 9154,
      "Ġbanking": 9155,
      "ĠBesides": 9156,
      "urches": 9157,
      "ĠCry": 9158,
      "imp": 9159,
      "Ġ($": 9160,
      "Ġconsolid": 9161,
      "ĠAlong": 9162,
      "Ġcompleting": 9163,
      "Ġcomputing": 9164,
      "Ġconversion": 9165,
      "olesale": 9166,
      "Ġoral": 9167,
      "ĠEth": 9168,
      "Ġhandy": 9169,
      "ropical": 9170,
      "QL": 9171,
      "Ġhung": 9172,
      "ĠAL": 9173,
      "ĠEC": 9174,
      "ĠKevin": 9175,
      "Ġfacilitate": 9176,
      "low": 9177,
      "oir": 9178,
      "tic": 9179,
      "rection": 9180,
      "ĠBB": 9181,
      "Ġchronic": 9182,
      "Ġworn": 9183,
      "Ġdirectors": 9184,
      "Ġrepresenting": 9185,
      "Ġpodcast": 9186,
      "ĠComputer": 9187,
      "ĠSupreme": 9188,
      "wear": 9189,
      "Ġpup": 9190,
      "ĠTam": 9191,
      "ĠMaterial": 9192,
      "ĠRog": 9193,
      "plant": 9194,
      "Ġaged": 9195,
      "Ġworkplace": 9196,
      "Ġelectro": 9197,
      "Ġinspire": 9198,
      "Ġfulfill": 9199,
      "ĠMix": 9200,
      "Ġvine": 9201,
      "ĠOx": 9202,
      "Ġpointed": 9203,
      "ĠPrim": 9204,
      "Ġsurrounded": 9205,
[...]
